<unk>
<s>
</s>
्
.
,
the
के
है
of
में
़
to
and
की
प
और
in
से
a
।
को
का
स
is
हैं
)
(
:
क
&apos;
पर
य
एक
s
कि
नहीं
%
that
for
या
त
लिए
The
कर
”
यह
भी
इस
was
ट
-
on
र
व
you
it
are
“
ने
था
be
?
न
with
not
द
as
हो
this
ही
or
by
करने
तो
आप
जो
&gt;
किया
&lt;
from
फ
I
वर
have
उन
an
/
श
his
गया
at
करें
ष
ज
&apos;s
ध
अपने
he
which
-@@
has
वह
can
कुछ
तक
म
कार
ड
your
&#124;
they
कोई
साथ
निर
will
ग
वे
थे
जा
थी
तथा
ति
सकता
;
all
one
ता
{
we
}
किसी
उत
their
यक
रूप
were
दिया
had
रहा
but
समय
It
जब
In
India
ी
जाता
हें
ब
ये
ण
सकते
इन
हम
there
about
बाद
मैं
बहुत
होता
भारत
दी
करना
वारा
This
करते
also
सर
रहे
ा
them
who
री
more
people
time
other
राज
अपनी
And
its
थ
when
लेकिन
अधिक
े
if
been
होने
अन
पूर
पहले
do
उस
तरह
नाम
तर
वाले
out
कम
उनके
only
हुआ
विश
He
हुए
उसे
If
like
काम
up
may
...
यों
बड
बारे
षा
A
संस
अगर
what
so
अब
&apos;t
these
फिर
1
षेत
बच
चाहिए
रकार
राष
बात
any
_
You
b
उसके
no
इसके
But
होती
र@@
करता
some
should
वास
सभी
होंने
लिये
into
कारण
S@@
कहा
दो
यदि
ले
d
आपको
अ@@
Indian
!
than
her
दर
him
ली
देश
ल
get
i
लोगों
सम
would
पड
रक
टर
two
भारतीय
अर
जाने
-RRB-
थान
-LRB-
च
ती
रीय
रा
रेणी
जैसे
un@@
very
.@@
म@@
new
पास
लोग
गए
our
मे
years
सी
could
made
गई
after
चित
उनकी
ना
होगा
सरकार
world
रों
होते
because
हिन
रही
many
first
रयोग
ते
2
There
over
D@@
in@@
B@@
इसे
work
उद
टी
षण
क@@
बार
सबसे
न@@
सन
मुझे
सकती
पत
us
हुई
योंकि
k@@
केवल
ऐसा
जाती
my
then
य@@
t
रह
राप
रिया
re@@
स@@
अच
use
&amp;
एवं
हर
प@@
वि@@
ओर
व@@
छ
most
बन
धर
आ@@
आपके
o
कई
ल@@
उपयोग
way
K@@
s@@
They
P@@
सक
said
want
तान
जीवन
make
ing
कभी
even
life
d@@
name
दिन
now
ख
वो
used
बढ
see
वाली
बल
पता
मार
रस
L@@
तब
सूची
file
M@@
उसने
C@@
g@@
शन
So
man
महत
me
where
जाते
लिया
G@@
आर
We
ाइल
A@@
नी
शक
योग
त@@
Category
t@@
बर
जी
थित
ऐसे
such
शब
before
T@@
रत
पार
under
y@@
अपना
उसकी
बीच
b@@
ए@@
help
…
es
n@@
R@@
ब@@
थिति
how
know
N@@
भाग
दे
day
able
यान
रा@@
p@@
H@@
चे
3
हूँ
between
आ
सा
ट@@
भाषा
she
सामान
जाना
यादा
रो@@
called
सब
मुख
अक
आवश
देने
मान
डर
per
must
समस
ar@@
सत
go
ठ
साल
यात
year
ना@@
ed
right
इसका
al
Z@@
country
जन
बना
n
तुम
language
F@@
take
just
ला
need
वस
गये
भ
चाहते
रिय
did
through
दोनों
those
परिवर
being
0
an@@
हमारे
हमें
मूल
राम
v@@
तन
लड
नही
er
रम
रि@@
m@@
government
state
अध
अनुसार
here
गयी
मन
घर
का@@
back
al@@
संख
मा
उनका
जिन
part
h@@
रुटि
आज
मा@@
ह
ए
रे@@
u
विस
दूसरे
place
different
लक
उपलब
भर
षित
शुरू
er@@
मक
नि@@
V@@
e
ज@@
E@@
ers
मिल
करती
मेरे
अंग
am
ग@@
same
does
अलग
सुरक
Hindi
पढ
होना
o@@
द@@
तु
system
जोड
ation
i@@
चार
जानकारी
वी
much
बाहर
रति
e@@
उसका
युद
set
information
c@@
W@@
रेस
सु@@
ar
What
end
सिर
या@@
तीन
विकास
दक
dis@@
number
For
ला@@
good
own
को@@
l@@
विद
4
found
पश
during
No
इसलिए
ें
यहाँ
किए
three
समर
सि@@
am@@
इससे
लगा
वपूर
en@@
ड@@
y
ह@@
पुस
यवस
च@@
r@@
अस
a@@
इसमें
ad@@
मदद
long
against
down
ं@@
छोड
जिसे
power
वा@@
important
well
छा
बनाने
5
&apos;re
ों
शिक
बे@@
थापित
मैंने
great
war
ate
आगे
जिसमें
=
सा@@
श@@
हेतु
as@@
going
चों
बा@@
j@@
age
J@@
सदस
film
विशेष
f@@
सहायता
Government
कैसे
कल
ऐसी
विचार
m
कहते
पा@@
बिना
सं@@
री@@
वार
every
चर
पक
साहित
जिस
पूरी
at@@
यहां
things
रंग
पृष
षम
पन
think
टि
child
As
मध
When
ता@@
10
list
इसी
ated
कृत
दौरान
each
सका
ञान
वाला
मत
w@@
माण
available
रमुख
दुनिया
give
वक
children
रण
रतिशत
अंतर
काफी
सही
कृपया
मात
ई
टन
come
अभी
लि@@
while
To
without
हों
given
cannot
ले@@
old
शामिल
लगभग
अमेरिका
यू@@
कुल
ओ@@
दिल
both
last
$
too
इ@@
&#91;
गर
आधार
Please
जहां
again
local
यास
संदेश
इतिहास
change
got
योजना
another
अल
I@@
मंत
षों
water
ab@@
k
बंद
मे@@
जल
days
ch@@
ya
राय
संग
लगता
don
उ@@
came
समूह
धन
रभाव
&#93;
find
S
काल
षक
little
इसकी
देते
‎
z@@
आकार
st@@
ति@@
सी@@
कु@@
form
ऊपर
नया
All
National
तव
मी
say
u@@
small
िल
नदी
उच
मित
नों
विज
O@@
case
चा
तों
आदि
less
is@@
6
These
जा@@
social
कांग
हे
धि
किस
पद
p
en
Error
ti@@
फ@@
British
मंदिर
सके
लो@@
कों
शायद
पूरा
type
रदर
नीचे
अनेक
th@@
रता
it@@
or@@
That
on@@
तियों
left
New
थीं
फिल
थानीय
यता
रित
तार
still
im@@
जाए
सेवा
put
देना
On
समाप
ोल
known
सिद
person
अधिकार
चीज
पी
करके
लेने
युक
नियंत
home
अथवा
Google
देख
started
ः
निश
20
order
ठीक
main
रश
यही
तत
होगी
बी
four
‘
संपर
cent
network
से@@
become
निष
3@@
केंद
ा@@
political
यालय
दस
देता
देखा
मद
key
After
गो@@
ऋ@@
तैयार
विभिन
open
दूसरी
तौर
दें
side
यायालय
ha@@
रोत
7
मो@@
around
दृष
थिक
जैसा
सिंह
done
कूल
court
away
अत
Hindu
सामने
never
ने@@
List
In@@
जिससे
few
संविधान
करण
लेकर
जाएगा
डी
शीर
छोटे
look
ap@@
किये
आपका
रान
सूचना
आपकी
ri@@
book
विंडो
ant
अंत
always
रोग
चन
हस
टा
दुर
पादन
पष
something
really
law
ख@@
षिण
रास
के@@
ts
8
जगह
एस
आने
public
went
Congress
es@@
using
body
ic@@
ध@@
शहर
थ@@
human
हमेशा
वयं
already
सार
school
सेट
वाद
मुद
period
जिसके
दूर
दू
data
C
men
example
मि@@
रिक
खेल
तमान
दा@@
रु@@
15
कि@@
el@@
विषय
later
मेरी
city
God
e-@@
sure
ag@@
large
उल
खोज
दों
तेमाल
वतंत
चल
ted
संबंध
कोशिश
साम
पानी
ting
page
em@@
x
king
छी
read
अप
family
next
Y@@
पी@@
12
विकल
पि@@
U@@
भाष
अकबर
Show
माना
टि@@
9
group
णय
वीकार
start
बि@@
पाठ
free
ac@@
विफल
h
ent
support
took
di@@
ana
ating
de@@
area
g
पीछे
thing
words
मर
करे
30
यू
problem
वे@@
हमने
ur@@
English
पिछले
Al@@
सारे
रहने
ंग
land
मगर
2@@
कनेक
became
यम
उदाहरण
है.@@
मिक
केन
4@@
बो@@
डिस
बदल
ak@@
येक
अद
रदेश
window
sh@@
changes
अतिरिक
whole
रखा
One
रखने
हमारी
ई@@
परिवार
view
टे@@
वहां
अफ
service
line
ली@@
off
जर
हा@@
जारी
खड
धार
Singh
Now
times
why
बिल
उससे
हूं
टी@@
services
within
सभा
बनाया
l
रन
गा@@
हिस
आरंभ
मिला
जुड
वापस
B
डि@@
Do
पाकिस
ro@@
religion
following
लागू
ाई
उम
might
निम
means
taken
मस
आत
यकता
यस
ly
संसद
आई
आया
कर@@
av@@
कुंजी
े@@
अनुमति
आम
position
ous
*
best
छवि
11
show
second
process
ऑफ
At
देखें
विन
रथम
रदान
समान
word
मु@@
She
due
रेज
con@@
सो@@
size
million
परंतु
problems
वा
action
Your
रद
सिस
सामाजिक
मेरा
लिक
text
history
Chrome
नी@@
यु@@
एन
लाख
जबकि
उसी
थन
मामले
हाथ
फाइल
health
fact
रहते
नए
बस
message
गत
Akbar
Failed
कहीं
ex@@
टा@@
Delhi
नर
selected
national
कै@@
किन
files
6@@
जिसका
How
Ch@@
दे@@
li@@
हि@@
नक
रपति
मुंबई
18@@
चाहता
ul@@
पो@@
us@@
ia
रीन
Some
better
नई
c
An@@
वृद
जी@@
शि@@
पा
बी@@
याद
Could
मुक
America
संभव
os@@
दृश
रे
Muslims
चुनें
पे@@
पहली
किंतु
लगे
बने
tr@@
id@@
whether
op@@
ष@@
possible
women
रयास
food
r
लम
His
try
M
16
often
ईश
big
Court
विधि
thought
करोड
party
यूटर
folder
गंगा
matter
lot
ि@@
लें
यार
खुद
यु
ad
षमता
members
वहाँ
देखने
full
समाज
लाम
साफ
State
Muslim
level
story
दा
दार
five
जि@@
keep
कृति
making
Whether
अंतिम
हो@@
love
रहता
मृत
भ@@
common
पैदा
चा@@
policy
पाया
young
आश
live
कृष
among
question
um
☻
सेटिंग
point
high
user
रू@@
create
जहाँ
तम
il@@
value
वत
device
चि@@
P
ine
लों
hand
जे@@
लग
शरीर
says
अपेक
son
om@@
कड
रारंभ
डाक
care
टम
बु@@
written
पुलिस
tell
red
गु@@
मास
ण@@
मनुष
पाने
चाहिये
himself
Mumbai
अग
image
नीति
महा@@
सप
जनता
तित
सच
जवाब
far
ियों
ha
pl@@
Sh@@
ताकि
house
address
working
boy
House
ol@@
ी@@
हार
development
जाये
error
7@@
ओं
परि@@
control
United
50
present
etc
getting
रात
रतीक
ations
since
सीमा
राजा
money
contact
co@@
sp@@
however
आपने
T
रिटिश
थापना
तरफ
दि@@
mind
seen
Pakistan
others
याय
अनु@@
together
based
यन
ir@@
application
current
मों
Islam
Parliament
तंत
ra@@
industry
हे@@
दिनों
months
शर
ताव
run
अनुभव
देशों
देती
failed
बुद
video
संघ
today
कन
server
par@@
इतना
गलत
विक
लाल
खा@@
सलाह
मुस
उप@@
हा
et@@
password
घटना
light
पूरे
Open
el
R
ates
परिणाम
वीडियो
&apos;m
NAME
समझ
le
100
though
उनमें
नगर
करेंगे
उपकरण
खर
भा@@
countries
actually
वित
भिन
टो@@
States
भीतर
जो@@
पुनर
25
als
Re@@
सल
et
Par@@
वी@@
आधारित
kind
रणाली
वविद
अनुप
पट
literature
river
special
भूमिका
Ar@@
connection
century
फर
est
&apos;ve
computer
लेख
पिता
́
ऐ@@
E
यर
संगीत
वन
told
दु@@
let
se@@
um@@
वज
मूर
ओ
लोक
पुर
दिए
x@@
space
सेना
ताओं
a-@@
ं
रेम
जिला
धारित
र-@@
जु@@
ak
होंगे
D
parts
true
14
वरूप
religious
Laughter
ask
ans
लोड
दूसरा
course
death
understand
जरूरत
books
मी@@
itself
security
यो@@
होकर
President
either
anything
doing
हाल
छे
मिलने
Un@@
N
account
नो@@
head
face
रति@@
चाहे
संक
be@@
15@@
तु@@
play
American
इनके
दिखाएँ
Enable
अधिकांश
आयात
default
शा@@
रुप
रिपोर
बेहतर
id
Select
ै
air
मानव
further
ic
minister
बताया
gave
थोड
ार
ed@@
बे
फि@@
ो
वजह
आधुनिक
जानते
believe
चला
याप
tions
states
heart
settings
मोड
16@@
वीप
आकर
member
रियों
up@@
Con@@
ec@@
नये
युग
ist
once
तस
भविष
South
World
कंप
यतन
version
having
Sanskrit
URL
least
कहानी
दिये
अं@@
Sabha
२
culture
रवेश
freedom
feel
9@@
Rs
है@@
le@@
हल
सामग
rate
इनमें
छ@@
until
दिखाई
महान
ma
8@@
पुत
However
ies
front
enough
future
माध
लो
early
Mar@@
date
यंत
विकसित
business
per@@
general
temple
राजस
उसमें
शासन
कौन
लेते
X
built
संयुक
मै@@
कोर
रेजी
ter
reason
सदन
संबंधित
result
ay@@
लिखा
Y
णन
X@@
ंग@@
देखते
भूमि
आयु
L
सूर
pre@@
आता
पे
बाहरी
एल
har@@
घ@@
अलावा
डा
class
complete
write
कंपनी
comes
asked
ago
hi@@
led
5@@
विशिष
top
चयन
न-@@
Ram
yet
police
na
आवाज
मिलता
कानून
se
वही
यवाद
षर
ut@@
1@@
ka
आते
चीन
along
कहना
चिह
th
चुनाव
Not
needs
mode
almost
brought
ever
छोटा
भू@@
राज@@
Act
Use
18
राजनैतिक
taking
की@@
उड
मतलब
advice
ways
सम@@
pro@@
डे@@
themselves
जान
लु@@
item
An
तरीके
call
certain
डेटा
re
O
परीक
role
education
जांच
नियम
टों
चयनित
ator
पात
आतंकवाद
छोटी
week
बा
considered
थल
rule
According
living
विवरण
समुद
sub@@
ो@@
नामक
upon
writing
पु@@
de
places
towards
कक
ढ@@
24
पना
Constitution
Th@@
ings
अभि@@
शैली
population
टीम
सू@@
उचित
करेगा
शित
मुसलमानों
qu@@
रखें
areas
रभावित
sent
+
Because
रशिक
छेद
एम
z
span
ठ@@
थायी
pay
रो
तुलना
अगले
tion
वैज
including
उपयोगकर
जैसी
past
संदर
access
था@@
पसंद
he@@
languages
ai
ल-@@
आदमी
famous
and@@
color
देशिका
F
लैंड
ou@@
ence
check
district
lo@@
वान
13
ing@@
रख
मौजूद
ch
movement
ID
मांग
source
सुधार
ta
टे
father
ताक
University
born
Ad@@
created
जन@@
ऋ
River
near
वेद
ance
cases
ु@@
मामलों
उनसे
निजी
कब
ical
१
production
दिष
ity
provided
International
ढ
चिमी
दी@@
एशिया
talk
ala
ev@@
माता
सफल
सकें
provide
रिकेट
hi
rights
असफल
ंड
real
चिम
आंदोलन
ra
गति
रसिद
Province
मीडिया
रनाथ
लगी
शास
नस
पदार
खास
40
लर
पंक
लिंग
मण
यद
चुके
Council
जिनमें
nothing
ay
कश
तरी
पर@@
पै@@
Pradesh
60
अवैध
इच
fl@@
वेक
office
आक
रमण
ud@@
link
महसूस
..
society
वों
Man@@
याओं
major
आती
मिली
various
ang@@
अरब
economic
Cannot
growth
f
जे
अन@@
मुसलमान
ur
required
चक
ञ
असमर
पति
नेता
दशक
रहती
ञात
तुत
17@@
bo@@
man@@
टिक
rec@@
ary
लेना
half
till
थानों
थर
अंदर
विभाग
लिम
s&apos;
art
कता
named
usually
tic
tive
knowledge
Asia
गि@@
total
ent@@
गी
non-@@
By
शिकायत
Then
makes
नेटवर
effect
सरकारी
कं@@
ठा
यापार
मौजूदा
ds
according
बिजली
details
लाइन
ची
mother
राजनीतिक
team
groups
चुका
महीने
कला
हिंदुस
Bar@@
समिति
सारी
display
अदालत
मेल
रकाशित
modern
कोड
ally
Network
room
अधिकारी
वजनिक
रीका
निक
धीरे
six
Union
खो@@
मकान
पिक
लाभ
community
reading
idea
goods
capital
गांधी
दिशा
low
China
हमारा
Even
no@@
field
blood
From
अधीन
भाव
कमी
रतिक
उपस
Add
With
began
close
Nepal
नेपाल
several
पहचान
Africa
उपयोक
Are
short
चात
किल
कह
जाँच
मानते
Flag
foreign
सवाल
पुरुष
रखना
गा
डी@@
रचना
रग
उर
हिंदू
Gandhi
भावना
पहला
lost
आदेश
चे@@
शताब
देखभाल
claim
रेट
therefore
original
ks
wanted
करनी
ते@@
soon
अवस
wrong
यवहार
पालन
ॉन
हालांकि
ययन
move
पुरस
si@@
pe@@
ani
ob@@
decided
अमेरिकी
रै@@
ors
चु@@
end@@
पथ
संबंधी
ञानिक
तिका
to@@
संकेत
वाल
तेज
mean
सड
0@@
करीब
बै@@
Islamic
Europe
West
बनी
महाभारत
इतनी
संघर
बनाए
अव@@
necessary
बद
East
search
डा@@
तो@@
Template
nature
cause
वालों
अनुच
डे
council
४
outside
music
३
wrote
अज
behind
गुण
En@@
History
खोलें
hours
नयी
above
mar@@
पल
भक
राचीन
south
यत
तय
ve
ep@@
यूरोप
वीर
एं
नोट
ऑडियो
clear
फोन
Mo@@
K
gh@@
चलते
ents
हवा
car@@
शी
पोर
ित
उपर
report
v
night
मिलती
ai@@
ground
खाता
sha@@
ness
session
media
Name
धा@@
रखते
जरूरी
बाल
#
लेट
entire
पुनः
जायेगा
हु@@
सात
अवसर
types
सुनिश
over@@
mo@@
विदेशी
My
राह
During
allowed
पकड
longer
विरोध
code
रिस
दान
भाई
percent
simple
related
ite
London
ॉल
ah@@
held
वेब
जिसकी
टवेयर
तथ
यापक
रोक
subject
17
बोर
difficult
enter
जिसने
दल
game
बंगाल
चौड
वादी
ah
out@@
mon@@
au@@
directory
ँ@@
works
इं@@
19
धा
टैब
खु@@
Bengal
decision
village
ise
वेतन
path
ढंग
running
2000
po@@
Why
भारी
ir
ti
Minister
Krishna
experience
खाली
12@@
डाउनलोड
Am@@
High
bl@@
month
woman
चिकित
played
passed
Israel
आए
खाना
अवधि
won
इंग
कीजिए
eyes
Raj@@
ment
Set
पेश
project
26
hard
single
तर@@
Ex@@
test
disease
डेस
File
average
डो@@
आमदनी
यी
बटन
Create
region
ty
परियोजना
looking
पांच
du@@
d-@@
han
gr@@
inside
कवि
चारों
निया
विशाल
ish
ऋ-ऊण
बदलने
पहुँच
रवीन
vi@@
ash@@
साँचा
continue
St@@
बर@@
cl@@
t-@@
coming
मिनट
command
मीर
Applause
screen
यपि
drugs
powers
active
कदम
save
Many
questions
der
रिप
2001
third
ism
Sam@@
सहित
rest
Ganga
हैं.@@
building
सेवाओं
output
poor
पुराने
महिला
दीन
Most
te
अप@@
everything
below
Hindus
war@@
dec@@
आदर
science
established
तविक
Committee
सुभाष
software
धांत
Pro@@
progress
changed
रमाणपत
General
अपराध
job
सहायक
लू@@
online
दो@@
ara
&apos;ll
ind@@
ling
les
भगवान
साधारण
गंभीर
quality
published
chief
सोच
सह@@
ons
br@@
कूटशब
यां
५
leaders
Kar@@
नता
विचारों
Q@@
conditions
hands
aw@@
नष
la@@
मुश
gl@@
गुप
सॉफ
developed
wall
runs
od@@
personal
stop
capacity
ini
friends
पीड
instead
कारी
cost
लिखने
sense
शो@@
someone
रकाश
आसान
ph@@
21
सऋ-ऊण
मिले
\
send
doesn
बातों
सफलता
Har@@
bar@@
bring
वै@@
ancient
ati
goes
रहना
ji
terms
रेलवे
मान@@
एप
आइ@@
उ
हाँ
कटॉप
हिंदी
character
Here
रशासन
Subhas
March
technology
ंस
वामी
सेल
ter@@
Central
Unable
Rajasthan
रेड
popular
turn
ne@@
Sha@@
tri@@
menu
Dis@@
सीधे
People
६@@
whose
घंटे
िया
interest
trying
Di@@
ice
मू@@
कृषि
stories
दीवार
नो
tried
Save
काव
समाचार
आशा
didn
issue
जिनके
सुन
Can
ets
षी
कठिन
beginning
बाकी
बहु@@
forms
inter@@
terrorism
Chandra
bar
meeting
बदलें
installed
यूनतम
quite
so@@
तृत
याख
kept
felt
परिस
तावेज
लिंक
bad
phone
cr@@
ants
तियां
Lok
बातें
जाति
pur
earlier
थि@@
बाजार
औद
य-@@
North
particular
Change
लगाने
७
23
ver@@
हत
U
आग
birth
बदलाव
Khan
खाद
style
Ma@@
ard
शुरु
चरण
रगति
tonnes
ding
मेन
ke
2.@@
gets
ble
नियुक
भोजन
ंद
Well
car
Wikipedia
रु
शांति
सिन
task
अधिकतम
Roy
पुष
activities
सीमित
audio
ती@@
ves
ma@@
va
president
Pr@@
England
युवा
ones
har
demand
सांस
खत
rules
सर@@
बनाना
शे@@
meet
deal
चलता
ै@@
रारूप
ats
तिगत
बावजूद
la
ub@@
earth
जेल
higher
international
ोन
leave
जनवरी
22
add
amount
cricket
त-@@
डिफ
basis
G
राजधानी
act
साक
पुन
takes
एँ
गड
संरक
सों
mis@@
self-@@
else
चुकी
10@@
While
com@@
energy
वैसे
धि@@
normal
ंगी
ऊ@@
ू
Bill
sound
weight
Bo@@
configuration
De@@
परन
saw
perhaps
press
Mon@@
strong
fully
names
ची@@
ang
तें
मं@@
please
return
रधानमंत
कमांड
लामी
messages
14@@
धारा
संगठन
शेष
TV
ach@@
चले
market
विवाह
इनकी
north
box
तीर
संसार
matters
natural
जित
बू@@
oc@@
इजरायल
authority
औसत
ages
leader
company
learn
यें
गूगल
म-@@
Com@@
टार
वाधिक
supported
नाथ
ali
तल
ari
US
ताह
include
beautiful
ten
चंद
छत
६
ked
ू@@
मिश
नलिखित
central
अधिनियम
step
सोचा
मल
सुभाषबाबू
we@@
October
sometimes
ho@@
बनाएँ
wife
evidence
निकल
died
ful
ms
रैक
do@@
ill@@
किंग
District
bi@@
ens
January
round
setting
giving
ru@@
Institute
संजाल
रेष
आई@@
att@@
आये
ऊर
pr@@
location
रह@@
नियमित
Time
पैसे
answer
खाते
trans@@
white
पृथ
lives
across
numbers
Lord
object
चौ@@
नन
वातावरण
छा@@
माल
news
Sub@@
जै@@
इंस
ोर
विमान
follow
लाने
ri
पहुंच
aj@@
Go@@
su@@
टिप
alone
ये@@
animals
कॉ@@
लाया
build
parents
treatment
होनी
थात
गे@@
individual
species
Benefit
bit
नेहरू
survey
चीनी
विवाद
environment
ability
विरोधी
Supreme
ered
अनुवाद
तेल
w
ci@@
thinking
army
Invalid
सागर
likely
सूत
तभी
force
generally
संभावना
घु@@
paper
विकिपीडिया
३@@
Park
delete
War
घोषणा
ideas
तिक
यूशन
ali@@
बातचीत
200
खंड
लास
responsible
कितना
फे@@
तुओं
ge
निकट
चेतावनी
receive
योगिक
हज
og@@
ार@@
situation
अधिकतर
रविष
झ@@
ian
article
private
series
nation
items
रिश
Party
गन
पुराण
मृति
King
lines
लगाया
तरीका
तोड
da
rather
lower
ore
ast@@
लोकप
हफ
बं@@
Search
operation
देर
icon
ball
Only
Department
ath@@
अनुमान
ade
80
कीट
poet
choose
similar
सभ
कुरान
भाषाओं
Start
कपड
तंभ
विरुद
trade
तयशुदा
me@@
ses
रकट
shown
Cha@@
आंकड
समुदाय
site
Don
ada
शाह
share
serious
रहण
content
तारा
sign
बौद
ties
यधिक
ama
रॉ@@
April
लिखे
friend
वनि
Mad@@
load
hold
note
राजनीति
कानूनी
under@@
सहयोग
for@@
2005
visit
ery
middle
आउट
format
दन
happened
हित
Its
कविता
इनका
met
राकृतिक
res@@
increase
जिनका
परिषद
28
दोस
Ab@@
memory
टेक
te@@
web
जनसंख
विधेयक
याँ
पुरानी
range
View
majority
ान
particularly
पों
मुल
नें
Kashmir
fire
पण
चुने
यादातर
खाने
Internet
charge
gives
टल
लन
easy
increased
Other
allow
transport
administration
तिथि
expected
टिंग
90
पं@@
लौ@@
उपयुक
cells
especially
बनने
आफ
लेखक
industries
विमानक
Qu@@
वायु
योगिकी
shall
मई
LINK
era
मोबाइल
Service
Copy
fall
os
Governorate
रौद
entry
तेजी
ही@@
वल
ath
८
training
गार
बराबर
Display
शुरुआत
बनाई
needed
दूध
मुहम
वितीय
आन
शोर
ash
कस
कट
term
५@@
knew
भागों
ु
रिटेन
कहाँ
आस
अचानक
ry
gu@@
ati@@
Hamachi
method
Q
temples
भेड
अम
gone
plan
desktop
समन
ठभूमि
रोज
table
बद@@
Tri@@
जाएँ
contains
दाम
continued
1.@@
चिन
आजादी
आनंद
रांत
status
मिलित
0-@@
मनी
Mah@@
ig@@
Is
reach
कॉन
Mal@@
मिस
peace
sur@@
विभाजन
दिखाया
stage
NHS
looked
desert
राउज
door
ताल
thus
Su@@
ँ
Where
program
Ram@@
heard
copy
बजाय
ik@@
रयुक
पाई
शा
cities
disabled
sc@@
az@@
आयोग
hour
ell@@
happen
साइट
खिलाफ
फै@@
becomes
लगों
benefits
font
y-@@
dr@@
Indians
accept
मशीन
kar
एफ
install
structure
2002
बीमारी
यो
justice
seven
सहेजें
politics
cha@@
गांव
भेजा
importance
2003
wide
Western
former
followed
mer@@
नित
paid
शु@@
Click
ill
नागरिक
Li@@
थितियों
research
Pre@@
पताल
basic
ंगे
minutes
तानी
except
income
Default
दिमाग
scheme
थों
consider
Thus
इतने
यापारी
लिखी
ps
पित
poems
ins
नेताओं
match
Nehru
मंदिरों
received
probably
धी
go@@
देव
lead
जितना
Per@@
एक@@
लाई
ंक
रं@@
ow@@
दंड
पहाड
legal
added
insects
धारण
वेल
purpose
जों
H
̈
20@@
nor
कारों
लार
७@@
happy
संपूर
Calcutta
tical
s-@@
रोफ
weeks
हासिल
भव
सै@@
समझा
गी@@
आमतौर
इनपुट
sl@@
Ac@@
letter
अधिकारियों
लिपि
Car@@
एच
लेबाज
deep
difference
इंटरनेट
ber@@
देवी
पासवर
नियत
practice
हजार
success
Move
छात
संवाद
मीटर
युत
ically
specified
बता
Delete
RE@@
cultural
ata
involved
forces
नज
aff@@
aged
saying
वोच
फोल
ther@@
हृदय
European
remove
गढ
गों
title
ताजमहल
valid
Allowance
script
windows
रहस
turned
असर
Shar@@
िर
November
रकृति
द-@@
पाँच
देगा
ning
Information
carry
record
appear
कितनी
select
लॉग
तुर
योगों
रिंग
पैकेज
ंट
IN@@
all@@
षिक
जिम
अगस
greater
Ali
ending
वार@@
Help
लै@@
property
खे@@
disk
stone
जीत
वैध
अली
ators
an-@@
agreement
email
af@@
constitution
courts
May
&apos;@@
accepted
plants
हीं
समा@@
२@@
भार
wants
बैंक
meaning
रबंधक
spread
ded
फा@@
truth
वाक
सरल
हवाई
Sa@@
1999
costs
बिन
मालिक
लता
Pur@@
बां@@
ative
देंगे
गद
Evolution
button
पाए
ari@@
j
tic@@
पूजा
offline
पाते
संशोधन
condition
sed
Uttar
कू@@
कार@@
included
1-@@
uk@@
September
29
Sal@@
लिखित
gui
str@@
कौंसिल
जीवित
situated
shows
Bombay
शिखर
वैदिक
seems
टू
शिकार
Bh@@
जीव
तनों
connected
CD
study
road
रेगिस
Shah
reached
कृतिक
मैदान
पूछा
god
रीम
खोलने
ial
शी@@
plant
Bal@@
जाकर
speech
noise
industrial
रखी
Sar@@
इंडिया
रेरित
black
forward
चलने
leaflet
थाओं
चाहती
भरी
ंड@@
produced
रेक
समझने
formed
षीय
с@@
Gu@@
Mahal
ying
bed
options
सेन
सौर
कथा
First
No@@
बढ@@
रम@@
Office
खोल
background
2008
apply
बत
दीर
Sp@@
ned
लेषण
previous
min@@
struggle
website
लगातार
भाषण
हाथों
19@@
हंसी
गाड
benefit
cell
रखता
2006
ended
नेतृत
base
सामना
मानना
Pl@@
moon
मैने
section
il
बिलकुल
extension
टियों
Kal@@
खी
material
नीय
Tagore
सुविधा
hand@@
मिलते
लग@@
चलाने
moment
आगरा
ge@@
hear
रूरत
Social
राम@@
जाएं
पू@@
लस
बाज
Home
2007
हट
जमा
32
ईमेल
cor@@
sun
उनको
res
ish@@
जापान
tu@@
खुले
opinion
भेज
independent
♫
fear
विजय
उपभोक
मालूम
trial
violence
रैल
oil
रांति
दिखाने
concerned
al-@@
पान
13@@
तट
शत
विष
risk
February
फो@@
गेंद
described
खान
ञा
issues
नै@@
सस
ters
Great
होनें
सो
हँसी
संरचना
construction
dy
Before
mail
students
मूलभूत
ton
civil
prime
notice
रचार
rich
बम
q@@
,@@
financial
कितने
Afghanistan
जमीन
wi@@
रामायण
offer
attention
उपयोगी
sing
बनाये
नाटक
des@@
volume
influence
See
Their
Co@@
शुद
killed
बदले
July
Thank
square
un
जाएगी
enabled
१०
rise
fi@@
चो@@
लाह
ab
pi@@
कप
cur@@
ane
ऍ@@
दूरी
दू@@
टो
workers
learning
Choose
रेल
scale
feeling
वीं
टै@@
Le@@
घरों
largest
applications
official
est@@
points
धरती
यवाही
fast
por@@
laws
सुंदर
directly
-प
पैसा
stand
रखे
70
कबीर
Tamil
नु@@
अधि@@
किनारे
ving
respect
August
Commission
teacher
powerful
याग
successful
ीं
sea
voice
शिष
eight
carried
कुमार
खराब
map
bul@@
करो
आं@@
धित
Health
हृ
inc@@
सिक
extra
automatically
साइ@@
नह@@
tur@@
steel
पंचांग
buy
एवोल
V
दास
die
मेनू
लने
वंश
वहीं
अंतरिक
तुरंत
हटा
values
ship
टीवी
सदी
दूसरों
चालू
log
आउटपुट
पीठ
opportunity
aya
जानता
जोर
Ne@@
December
U.S.
baby
जून
Type
cut
di
keyboard
खो
Folder
जानी
27
विधान
model
थक
doctor
हालत
Edit
option
31
W
जलवायु
घ
poetry
spent
drive
भि@@
Ak@@
तीय
Chinese
June
expect
यायाधीश
बॉक
वश
form@@
int@@
लिख
News
connect
हड
रि
मोर
west
stay
ged
happens
election
exist
गुफा
1,@@
oo@@
ाइलें
presented
elected
दूरस
तू@@
currently
तिष
activity
दुल
ology
ram
Raj
Right
एकदम
т@@
चैनल
specific
जिद
height
45
certificate
speak
नौ@@
णु
रिका
brother
organisation
generation
Plan
व-@@
travel
मंडप
Check
independence
ved
मिट
संपादित
bu@@
click
माउस
growing
ass@@
षिप
ends
उठा
Sur@@
Text
east
input
पवित
नम
मानी
milk
tab
हिमालय
morning
£
संसदीय
निकाल
मैन
पेड
sk@@
चढ
ut
ul
price
घोड
completely
थव
sector
देखकर
विपरीत
existing
सारा
kids
मुफ
links
आसपास
rivers
ारों
धति
parties
सुना
गै@@
जू@@
धान
रचलित
कराने
ni@@
ug@@
लिप
ile
yourself
मुगल
Number
ring
जानने
wish
PRODUCTNAME
column
As@@
अधिकारों
lakh
छह
षणों
कोष
नियमों
vo@@
ering
विच
वचालित
highest
एकमात
ensure
निस
actor
results
uses
located
Be@@
starting
latest
असली
reasons
returned
घा@@
ches
regular
her@@
Two
इ
sides
रण@@
beyond
वती
exists
Support
देखना
रॉक
ौ@@
safe
decide
धक
Lo@@
लगती
रमाण
Image
3.@@
ner
चुना
ement
ics
नौकरी
९
card
राजकुमार
संलग
उपचार
१@@
नि
ute
ened
Go
Of
कलाकार
अंतरराष
comm@@
affected
direction
निवेश
लेबल
worked
acc@@
विदेश
Ba@@
मज
अपील
Airport
०@@
ञा@@
effects
credit
महल
रहें
gra@@
global
opened
sw@@
मिलकर
अदा
ina
management
ised
appointed
completed
अनुसंधान
रवाई
lies
वतः
ick@@
circumstances
बसव
यातायात
लिकेशन
िक
Group
गं@@
agree
उपन
tion@@
लेता
योगदान
राइ@@
SE@@
Every
00
Po@@
९@@
ten@@
final
whom
कालीन
produce
fight
д@@
pur@@
attack
देव@@
center
ईस
25@@
schools
board
ze
proper
els
hindi
बैठक
event
2004
notes
Min@@
safety
ently
सफ
यूब
standing
drug
विडियो
physical
कौ@@
ee
कच
ain
ready
feed
ished
fer@@
pages
movie
यूरोपीय
नत
वृत
ियाँ
एं@@
एस@@
अवश
pressure
असल
फोटो
picture
users
theme
Let
हारे
चय
नियों
बार@@
pres@@
लू
views
tax
रारंभिक
&apos;d
kar@@
City
रमांक
लियों
दोनो
Our
sex
ously
Z
authorities
larger
complex
Basava
जल@@
चुनौती
ale
ank@@
वप
Centre
मह@@
Mahabharata
एन@@
अभियान
alism
किताब
मुर
re-@@
पुराना
mat@@
भेजें
पते
ant@@
रेमचंद
एम@@
पेट
इसने
पॉ@@
मरम
conflict
पीढ
nearly
35
ality
75
कान
जुलाई
लॉक
Or@@
useful
track
removed
बोस
यानी
protection
loss
आय
remain
पंजाब
रभावी
steps
टिकोण
hope
del@@
products
शुक
सोचते
Agra
सटेंशन
दर@@
२०
शान
500
saved
Kh@@
review
सौ@@
length
रसाद
Chief
जड
anti-@@
direct
षेप
URI
recent
remember
खि@@
tree
दत
माँ
साबित
dance
स-@@
planning
covered
1998
develop
भु@@
लॉ@@
समझौते
military
dead
ey@@
er-@@
नजर
आखिर
नव@@
महीनों
aging
टू@@
नृत
ely
तापमान
विशेषकर
परा@@
Tax
caused
सद
फी@@
Quran
thousand
moved
ि
placed
ॅ@@
४@@
रोगी
समाधान
ited
chance
दावा
दैनिक
रोकने
चिंता
6.@@
interesting
इंडियन
Ro@@
णा@@
walls
अति@@
events
ann@@
षा@@
believed
कैन
संहिता
गम
वाचन
easily
भूल
नेताजी
uc@@
तै@@
anda
kinds
2-@@
esh
talking
provides
4.@@
यूज
6-@@
electricity
joined
post
browser
Sri
शाखा
अनिवार
आरम
mobile
statement
Taj
letters
रेखा
economy
equal
शों
मजबूत
ber
Punjab
bur@@
eg@@
ताकत
immediately
तियाँ
डाल
जहाज
होम
हिंसा
finally
separate
ars
सकी
कीमत
झील
रार
empty
Japan
author
धता
complaint
machine
ेगा
sa@@
gi@@
manager
वो@@
player
फू@@
आयी
टेड
ham@@
संयंत
OS
गिर
ीन
der@@
changing
ue
element
रतिष
Color
1.
षता
break
जुन
लंदन
ham
description
port
जिले
и@@
भले
चतम
सब@@
hor@@
खतरा
सॉल
aa
hospital
जीन
समझते
रयत
चू@@
टेशन
परामर
दबाव
परमिट
Day
ize
resources
raised
रेडियो
इलाज
ans@@
चूंकि
है-
the@@
Prime
गुणवत
हर@@
everyone
panel
खा
ne
looks
खिलाड
ञापन
ita
pan@@
System
आंतरिक
करा
invalid
मौ@@
गईं
पाद
ists
राफ
Assembly
profile
Nokia
आरोप
करेगी
आरंभिक
यापन
housing
green
रसन
मेट
इत
ko
tor@@
१८@@
ऐतिहासिक
निहित
iz@@
seem
pattern
इन@@
जैन
राशि
Video
धो@@
Ap@@
यल
गीत
pol@@
limited
ā@@
For@@
रेशन
At@@
animal
ce
कियों
declared
wor@@
prince
ja
रोह
enable
गरीब
seek
и
Air
तार@@
scientific
ff@@
लॉगिन
stream
वैश
hit
houses
lived
संकल
images
शै@@
अभ
width
tar@@
feet
download
companies
notification
ping
कमरे
नोकिया
Article
डन
simply
कलकत
den@@
programme
आपसे
लिन
सफेद
फूल
response
mental
1990
आप@@
राल
आठ
गैर
Inter@@
crores
leading
रबंधन
सुझाव
requires
विशेषज
मैच
साइड
older
रदूषण
additional
लं
John
रिया@@
मानवीय
reality
wait
1947
क-@@
Or
sort
II
भेजने
function
husband
रालय
offered
ST@@
Chromium
bri@@
hu@@
साइन
Enter
पाना
Also
महादेवी
responsibility
playing
छो@@
शिशु
More
अरबी
टस
actions
ew@@
centre
Red
समीक
Premchand
Web
सां@@
Tr@@
माने
जटिल
लगते
कहता
घरेलू
ie
coal
·
ठा@@
रंग@@
रां@@
writer
HTML
dream
facilities
जनरल
सालों
बाग
मन@@
मेंट
draw
वीकृति
ments
पोजीशन
CO@@
मना
ministers
शिव
आसानी
late
ऑ@@
protect
सान
package
standard
aid
लंबी
Japanese
Res@@
air@@
pollution
ियां
वाजपेयी
एंड
maximum
learned
sen@@
Rajya
टर@@
ऑस
tha
em
document
instance
वॉल
remote
married
रवर
Mu@@
wh@@
लाना
batsman
Company
लंबे
Middle
IS@@
निगम
About
भत
remained
Ko@@
hal@@
correct
BJP
भगत
closed
fit
कुर
festival
systems
Mag@@
याल
railway
spirit
amp@@
रहालय
Make
बना@@
सक@@
race
यिक
і@@
झु@@
षिणी
परम
पारित
Germany
tw@@
गृह
Do@@
बांग
रूस
male
Im@@
Windows
साझा
acts
रसंग
moving
नमूने
सूक
request
update
मिनल
वेबसाइट
row
रुरत
ist@@
शहरों
ap
अगली
revolution
खुशी
tradition
ess
ders
tool
पेन
seemed
Rama
Free
ences
Last
Code
divided
चली
नल
mark
ths
Since
thousands
टें
पह@@
Iran
import
ure
छि@@
ley
strength
लियां
в@@
रूरी
ईसा
तालियाँ
तकनीक
̆
साधन
तं@@
George
पाण
daily
telephone
देवनागरी
राथमिक
महाराष
ईरान
राट
बता@@
ंब@@
कह@@
अड
effective
फोर
grow
ns
ंगा
gen@@
डॉलर
o-@@
बनाते
33
biggest
approach
Ash@@
हीन
release
मुताबिक
elements
गुम
बताना
fine
ISBN
ion
Si@@
characters
रबंध
देश@@
संदेह
UK
fixed
सौ
figure
cre@@
Who
ao
भाजपा
agriculture
calendar
Dh@@
Address
officers
win
Ramayana
Asian
णों
successfully
knows
col@@
var@@
det@@
दौर
crore
ric@@
hy@@
keys
collection
रहेगा
1997
गणना
ंत
Research
traditional
tenant
Settings
टता
cover
Vajpayee
EN@@
met@@
char@@
गुरु
н@@
डल
features
मां
कीर
persons
77
रतिदिन
गुजरात
ईसाई
IPv4
तता
leadership
मिटाएँ
Unknown
रुचि
mentioned
लान
@
laid
sm@@
उतना
PRODUCT
wind
citizens
चाई
पाल
ect
ines
रानी
एड
फैक
फरवरी
unity
१५@@
clean
दौड
रतिनिधित
एकता
हद
ऑनलाइन
सफलतापूर
अकेले
चेहरे
heavy
ट-@@
mer
ren@@
समझौता
यूल
मुकदमा
units
recently
Once
teeth
2.
टरी
यमान
adopted
रधान
minimum
काफ
कमजोर
ire
pass
1996
pri@@
ker
entered
रिकार
shape
८@@
brain
उपग
भारतीयों
cold
speed
affect
Fort
शुल
bill
अनुपात
ped
Bha@@
डाला
दु
डो
थिर
मय
centuries
temperature
poem
फीसदी
ran
Today
GNOME
Kumar
सैन
ban@@
जानना
Yes
damage
Bank
परंपरा
avoid
i-@@
Although
इक
मिलेगा
मचारी
sti@@
om
includes
Bi@@
esh@@
JSA
democracy
पटल
duty
eh@@
गल
Vedic
संपादन
contain
Remove
दुओं
कहने
ching
̌
huge
मौसम
1993
औ@@
Audio
prevent
कोलकाता
е@@
ste@@
faith
बजट
समज
Netaji
flow
ging
देखिए
sion
religions
रवा@@
संसाधन
print
patient
tor
आपस
ip@@
टक
Account
ening
धु@@
तूबर
ably
निंग
ाने
star
hum@@
डॉक
decisions
यूम
acy
sheep
डिंग
नंबर
worth
fields
लेती
END
dly
नमूना
ulation
1950
5-@@
remains
eye
300
१२
Vishnu
खुश
मै
8-@@
अफगानिस
hel@@
कल@@
शस
treated
फार
टाइप
संकट
inv@@
partner
female
रांतिकारी
तीव
kh@@
net
घटनाओं
throughout
मानसिक
Both
appeal
देकर
upgrade
गदर
65
pos@@
गोल
ids
लकर
णी
caste
iting
मंच
1948
mainly
union
ong
Bhagat
थापन
पिछली
उपाय
unknown
Another
कठोर
medical
а@@
fell
worship
associated
in-@@
Nar@@
forest
creating
एफ@@
बाँ@@
host
चीजों
sky
ाइलों
OI
methods
on-@@
Disable
आतंकवादी
रोमियम
Jobseeker
standards
increasing
वाभाविक
बूट
बूढ
creation
ek@@
existence
इण
टकट
photo
ick
Which
dark
ib@@
नान
eb@@
रिज
वागत
our@@
begin
sts
फैसला
रष
बहुमत
फिलीस
हुये
songs
Key
जरूर
hair
impact
सल@@
ordinary
लोक@@
लीजिए
fort
seconds
टाइम
सितंबर
crime
लय
रतीत
एकत
displayed
वेत
properly
जिनकी
वेस
plugin
संघीय
लॉन
गहरी
ताज
सुबह
5.@@
Pat@@
www.@@
mandapa
selection
लते
सीडी
interests
ess@@
जितनी
Bharat
lose
library
Mi@@
proved
Urdu
manner
ga
ER@@
ki
rit@@
सुनने
к@@
parliament
Due
अतः
यायिक
anyone
मानक
unless
helped
सचमुच
Bas@@
Life
User
Dev@@
Maharashtra
lin@@
लोकतंत
अभिलेख
टोकन
mostly
शिल
समक
philosophy
ow
design
विभाजित
Cl@@
fundamental
Me@@
ched
becoming
वें
fin@@
Web@@
prepared
हटाने
बाध
लिस
target
मिंग
ठी
धु
रेन
परिवहन
आवेदनपत
NI
घोषित
anta
Under
addition
string
था.@@
permission
supply
उठाने
अम@@
western
si
о@@
AR@@
latter
ail
Ver@@
adi
Swami
चाहेंगे
दोष
रिम
शीघ
आर@@
मार@@
tim@@
णा
बों
किरायेदार
Mor@@
उपकरणों
दरवाज
जायेंगे
lock
Iraq
Republic
Is@@
रबंधित
pictures
label
elections
Trans@@
सिविल
1977
islands
Badruddin
ingly
Buddha
शॉर
visible
तीसरे
meant
Ra@@
रहित
Services
cer@@
शील
गठन
बदरूद
films
मानो
eng@@
अभिव
हरा
solar
सहारा
फा
लेन
mouth
internet
कॉलेज
यज
अनु
विशेषता
equipment
sal@@
atory
Window
Education
Vis@@
थापक
सतह
Se@@
ंज
लेखन
unique
ta@@
relationship
occurred
राइव
speci@@
men@@
broken
town
इल
बदला
ls
anti@@
हिसाब
सेक
login
installation
ory
लं@@
disc
Road
घड
fe@@
अमान
interface
धिक
aries
Kabir
He@@
Import
नुकसान
आवेदन
मृ@@
आयोजित
assembly
रजनन
वोत
back@@
nam@@
देवता
aj
uni@@
डऋ@@
हाथी
significant
हारी
regions
criminal
lab@@
00@@
4-@@
ऋण
24@@
ites
शारीरिक
हं@@
procedure
परस
ell
myself
dialog
appropriate
कने
गहरा
कीय
नेशनल
यायालयों
governments
Income
है-@@
पोस
चीजें
मौका
बंबई
000
सहमत
accused
जिंदगी
Britain
babies
garden
शांत
020
dev
Ben@@
लोगो
pen@@
लगिन
pat@@
यपाल
टिन
Te@@
stopped
Col@@
Contact
सुप
smaller
अजीब
Gujarat
लघु
via
hol@@
india
रतिस
पणी
णित
ide
permit
खून
soul
girl
बुनियादी
Arab
Association
रज
देखे
डों
fish
मिल@@
Device
discussion
वयन
बचा
amb@@
articles
मॉडल
keeping
ll
महिलाओं
folders
understanding
लौट
fr@@
judge
reduced
भरे
Empire
ising
clearly
3-@@
committee
जग@@
टैग
विल
भुगतान
अमरीका
26@@
यय
battle
तकनीकी
माइक
star@@
रेजों
ver
गीता
temporary
cal@@
Second
buildings
ena
improve
Nav@@
तरीकों
जायें
Press
बहस
रल
markets
दिलचस
Speaker
sentence
Muhammad
partition
Media
waiting
Bengali
boot
fil@@
missing
अना@@
निरीक
दिखाएं
eggs
jo@@
degree
anc@@
टु@@
Mount
den
exp@@
Work
रहीं
बडा
कागज
Ganges
bas@@
ear
ecting
Gandhiji
York
colour
निरंतर
जातियों
loc@@
टिस
On@@
200@@
comp@@
निवास
extent
hat
ose
खिड
reasonable
tons
हमे
station
रांस
filled
वृक
VPN
dev@@
expression
सहज
marriage
variety
rain
ef@@
inner
limit
विरूद
ke@@
नार
संचार
करा@@
,000
पृथक
fo@@
वाई
failure
val@@
inf@@
hara
exercise
quickly
११
essential
भरा
वॉ@@
tly
झा@@
नवंबर
Bur@@
sources
हक
रू
ures
आना
County
Her@@
नेट
causes
गैस
hidden
listen
इलाहाबाद
aka
interested
touch
यावरण
billion
effort
मिलेगी
prices
Such
unable
दि
TI@@
ized
लेंगे
गे
holy
आजाद
whatever
Public
ulate
बताने
लकड
ately
ऊंचाई
मौत
motion
super@@
can@@
vision
traffic
Password
ारी
दिवस
contents
climate
ami
stars
officials
चुप
टुकड
तीं
यूट
केट
Maha@@
hu
कीटों
वीकृत
add@@
आनुवंशिक
थे@@
रामीण
attempt
यपालिका
college
मेलन
कला@@
धों
Mughal
मधुमेह
principles
Though
डाटा
2009
fied
यानि
वाकई
Bhavan
ॉर
ारि@@
रियाओं
Bose
oun@@
у@@
चलाया
Preferences
El@@
arms
उपबंध
Australia
आकाश
none
policies
चट
constitutional
Find
Ge@@
eat
mouse
अलग-अलग
परे
१५
लोकल
सैनिक
कोण
मिलाकर
बताते
भाषाएँ
सिं@@
मारक
Char@@
1930
Gr@@
translation
समृद
bold
bro@@
मां@@
French
ight
department
http
गतिविधियों
relations
proxy
app@@
याशित
जापानी
street
यहीं
gar@@
stones
п@@
जाहिर
bank
एकल
वाह
Man
लाइ@@
student
अनुरूप
बाई
Street
खोजें
लित
Cor@@
IPv6
रंथ
ऊंट
ov@@
टेस
bottom
minute
ain@@
Send
surface
Corporation
def@@
नेस
planet
blue
officer
deleted
fore@@
विंडोज
थियों
Audacity
Ban@@
opening
जॉन
ot
सांप
लेयर
कृ@@
तमिल
beauty
टाइ@@
lay
भी@@
Mahatma
moral
दारी
parent
बोल
तहत
संप
although
ser@@
ency
197@@
AP@@
चरित
permissions
काउंसिल
White
महात
legs
dar@@
दिखा
यवसाय
Look
doubt
नारायण
developing
जीवों
ft
Island
रफ
Jam@@
greatest
NA@@
Note
जॉर
हानि
अमिताभ
7.@@
appointment
Chand@@
रिंटर
ं-@@
संचालन
ुरआन
TED
AS@@
je@@
landlord
ational
custom
Pal@@
हार@@
गान
piece
वीपों
टेट
normally
р@@
diseases
उतनी
नैतिक
mi@@
लिखें
levels
ler
impossible
asa
seeing
खिलफ
यहूदी
मुकदमे
institutions
understood
showed
काएं
जाएंगे
umb@@
पूंजी
fair
सेंट
Always
ions
Any
ba@@
hearing
Na@@
55
behaviour
लगने
gn@@
नौ
Like
लगा@@
е
song
Local
बुरा
परिणामस
ection
गिरफ
निकालने
राक
primary
सिंग
ier
टॉ@@
अभाव
families
शिश
Ag@@
0.@@
३०
रोल
kingdom
fighting
sa
internal
gold
consumer
architecture
na@@
Technology
बादशाह
डिया
Book
Vedas
कारणों
unit
करी
jobs
charges
Al
compensation
AL@@
efforts
फल
पाता
ंद@@
far@@
तुल
23@@
Mus@@
ण-@@
सोने
अश
पुल
कें
Get
appears
nine
भित
pain
इज
फु@@
ined
st
ances
Her
award
aware
followers
za
तिशाली
College
तारीख
वर@@
eds
universe
floor
मराठी
Jan@@
काले
phase
कीमियागर
happening
कराया
तः
ङ
classes
differences
जानवरों
Earth
संवैधानिक
मनो@@
सडक
med
Each
रेडिट
defence
DE@@
विकेट
cap@@
studies
Sea
रतिलिपि
yn@@
villages
skin
cancer
टूबर
spend
Center
1980
theory
परिवेश
з@@
lam@@
रीज
Housing
बीमार
डै@@
poverty
रेलिया
northern
असाधारण
Font
focus
context
मिलियन
तरा@@
जिसमे
School
genes
external
लोकसभा
External
starts
hom@@
ारा
Ri@@
camera
1984
yan
pillars
ey
मुझसे
लगाना
reference
इसलिये
enemy
challenge
daughter
हू@@
विलियम
Music
una
साथी
regard
लब
भेद
offence
Arabic
campaign
resolution
mountain
छुट
mor@@
पार@@
root
पैमाने
सूरदास
देख@@
Page
Kam@@
यटन
facts
enjoy
सेवाएं
л@@
banks
अल@@
Dar@@
orders
gas
wear
64
99
Palestinian
Pa@@
आलोचना
Test
पॉल
sleep
factors
Ph@@
Ubuntu
DVD
Those
रिकॉर
couple
Pe@@
कॉल
निकलने
hundred
grew
देह
introduced
ture
career
यथा
ek
जूट
border
jail
बयान
ol
ताएं
hab@@
भवन
अनुक
gods
Cricket
ys
explain
Islands
44
watch
रतिनिधि
healthy
HTTP
van
instrument
Bel@@
मारे
ancy
registered
iv@@
critical
calls
काओं
widget
choice
newspaper
बै
मेदार
एशियाई
बिंदु
पिन
alchemist
नकल
bodies
Server
defined
गेंदबाज
sec@@
co-@@
ऊ
पहुंचने
mission
Paul
devices
Unicode
परमाणु
ऐक
लंबा
evening
potential
मुयमंत
थो@@
NE@@
parliamentary
खुला
AT@@
CA
ठोस
जाल
homes
ः@@
suddenly
किले
contributions
घाटी
ve@@
थना
ame
Take
दिखायें
IC@@
agreed
कहती
Current
Sud@@
Temple
तीसरी
German
घटक
विविध
सोचता
Files
अयोध
highly
aim
ING
prove
thr@@
0s
join
समानता
Icon
staff
any@@
che@@
दीवारों
हैं-
plans
couldn
सिफारिश
आधे
सें@@
Law
exactly
Civil
enti@@
लेक
Sy@@
कां@@
मियों
MA@@
शासक
अष
दीजिए
ear@@
अल-@@
टने
zone
tre@@
well-@@
neither
San@@
चेन
टाटा
वाड
measures
Ber@@
reduce
अंक
fac@@
मुलाकात
कैंसर
औरत
भेजे
repair
Couldn
शोध
signed
annual
संभावित
presence
वचन
लोकों
Mahadevi
equ@@
गैर-@@
confidence
frame
संत
भांति
Str@@
sel@@
कही
gain
ail@@
दोबारा
Pan@@
leaves
filter
जायेगी
जनक
ements
dollars
matches
index
सीखने
जिनसे
count
bel@@
answers
ass
accurate
solution
appeared
०
ौ
1000
millions
तरण
communication
teach
Just
दुकान
-य
Lake
materials
चाय
देखिये
बेहद
रच@@
73
reported
eastern
ba
9-@@
Class
जादा
marked
1939
Comment
ram@@
कुंजीपटल
चना
ऊपरी
खरीद
photos
तकों
investment
client
ंडर
Allow
achieve
mal@@
किलोमीटर
पारंपरिक
Rec@@
vers
ff
मिशन
Hel@@
Children
Governor
examples
Working
medium
गू@@
ता-@@
Bachchan
scientists
belief
Vi@@
अधिवेशन
Up@@
Comp@@
remaining
strange
सहयोगी
distance
ठित
वावलोकन
ela
ई-@@
Dur@@
terrorist
BEGIN
Allah
J
opposition
यतः
fly
रमों
रृंखला
self
1992
कोशिकाओं
Vid@@
ना-@@
Courts
vote
दिक
अगला
AN@@
कित
entirely
बॉ@@
storage
adi@@
अनुरोध
li
कंपनियों
मैक
कैमरा
permanent
tically
यकाल
सीता
तैयारी
schemes
रकाशन
ster
outer
hari
यांकन
िंग
specify
export
भट
पसंदीदा
बैठे
Microsoft
तरदायी
आधिकारिक
ओबामा
विषयों
मामला
Veda
Bro@@
Minimum
साथ-साथ
app
stri@@
judicial
ca
॰
Solar
76
परिचय
one-@@
सदा
Bush
सेस
Jo@@
हजारों
वं@@
jurisdiction
Tir@@
हरे
39
उबुन
हैल
डस
सुविधाओं
publication
Bri@@
सकेंगे
संपादक
खुली
UR@@
shrine
southern
संगमर
cu@@
शाही
मत@@
दाखिल
Bad@@
भार@@
डालें
lack
रूपये
aut@@
Update
nuclear
बचपन
इसीलिए
इमारत
सीख
Marathi
सिटी
mil@@
Print
Therefore
crisis
signs
Kan@@
उधर
गेट
देवताओं
ven@@
ace
rural
depends
भरने
Bihar
परेशानी
Far@@
apart
ni
कृतियों
Language
मॉ@@
spiritual
argument
ination
मचारियों
एड@@
3.
Ser@@
वैंट
Command
walk
हटाना
कोट
sat
गहरे
upper
revolutionary
षकों
संगम
Obama
tation
constructed
iness
बिहार
mel@@
Keep
у
मुज
eer
रुक
रोबोट
डाय@@
तात
बंदी
ran@@
आँखें
बल@@
walking
imagine
विधायिका
भिक
वाहन
समझ@@
Persian
निय@@
नेवाले
bus
दरबार
खे
लती
Mac@@
aan
मिटा
wa
Left
゙
entitled
relevant
अंतराल
सरस
गलती
released
Indi@@
74
straight
रावण
ila
ple
lie
सार@@
Development
मुकाबले
Can@@
खाड
rates
tenants
Fi@@
किला
बुरी
अपनाया
1995
ust@@
reg@@
shared
functions
speaking
सावधानी
sitting
गणराज
वेब@@
दित
Green
ast
videos
मुहाफ
s.@@
तीसरा
Conference
alists
जान@@
pa
Credit
LE@@
दम
vimana
usual
TO
वजन
ruling
Bu@@
reports
democratic
tt@@
Control
iron
यकारी
भर@@
तन@@
q
ster@@
ी-@@
निवृत
raise
यवादी
पहलू
domestic
भो@@
बारी
तनी
वेदों
yl@@
ऊँचाई
छु@@
fa@@
LO@@
silence
नाइट
sexual
नदियों
Among
refused
भे@@
सेवन
maybe
Egypt
टकर
dem@@
Army
mu@@
fre@@
recommended
tasks
सकेगा
tra
decade
टरों
साहन
Bhag@@
Perhaps
शाम
suitable
समझना
Keyboard
में@@
ति-@@
channel
निवासी
sets
Taliban
raw
दिखा@@
edge
Bl@@
बनायी
empire
bringing
printer
Shi@@
बक
याएं
symptoms
34
individuals
असफ
asking
परेशान
कोने
France
लीय
labour
सेकेंड
que
रशासनिक
ide@@
camel
employment
sar@@
केल
secure
Sw@@
birds
अपडेट
trees
isn
heat
बेल
ank
low@@
Ham@@
anj@@
ava
wicket
आईडी
startup
2010
head@@
listening
Online
conf@@
फीड
corner
Prasad
फैल
दृढ
संपत
पैनल
लभ
बाह
भौतिक
तक@@
गहराई
Washington
आचरण
David
tar
२००८
मानचित
intelligence
रिंट
sun@@
master
Size
लागत
ाना
drawn
Comm@@
खबर
सज
जरुरत
fication
store
machinery
इंजन
सूचित
Out
तारामंडल
dy@@
indeed
judges
संकेतक
secret
sions
escape
रोड
subscribe
खों
announced
खतरे
नीतियों
principle
ung
72
सीधा
tional
शिव@@
होस
बह@@
thoughts
पत@@
ja@@
contacts
otherwise
रव
Data
बचाव
log@@
अमरीकी
फॉर
कहां
नामों
sell
terminal
compared
जय@@
initial
merely
लिखना
राजवंश
णता
शिया
Nag@@
छाया
अति
Pra@@
figures
बिस
1991
km
serve
यौ@@
रेरी
sufficient
रथा
देखता
mass
सरकारों
कऋ-ऊण
chosen
airports
2,@@
Cam@@
जनों
ruled
यापारिक
commercial
ming
emp@@
agricultural
insect
जोखिम
Desktop
काट
indian
परिक
१६@@
Lal
addresses
updates
ाह
28@@
तू
THE
wood
शादी
penis
organisations
एक-दूसरे
perfect
राव
Mr.
बैठ
यतया
डिक
arrested
जिब
journey
पुरी
k-@@
To@@
लना
Brahma
चमत
run@@
भाव@@
चाल
Jobcentre
goal
pal@@
लियाँ
estimated
marble
performed
Nor@@
गुट
Ask
रख@@
ological
duties
yp@@
Export
vast
sugar
संबंधों
तरों
extremely
समूहों
42
गण
slow
projects
carrying
Would
waste
roads
Later
hon@@
measure
धे
claims
William
रोशनी
IP
वसनीय
XML
इराक
चै@@
debate
मांस
घट@@
Port
Des@@
थीम
off@@
historical
Mat@@
Jain
बनाएं
Israeli
कत
proposed
Op@@
somebody
operations
ach
sync
जानवर
stood
हारा
आपूर
1988
Houses
tea
mountains
बनाकर
एच@@
29@@
м@@
Del@@
finished
Ur@@
rent
66
टना
nations
Message
HO@@
illegal
बचने
शैक
alities
दियों
योजनाओं
कूलों
ices
fill
executive
Date
allows
रहेगी
ङ@@
locked
वितरण
subjects
रियां
concept
माता-पिता
aming
तमाम
गौ@@
ाइ@@
ges
capable
.com
ारे
अर@@
धी@@
joy
Maximum
अवयव
stated
पौधों
So@@
रीकृष
भेंट
लंबाई
armed
require
ships
मीद
Subhashbabu
Project
helps
ili@@
Justice
Next
शेयर
Jay@@
hot
jute
इस@@
षैतिज
तलाश
converted
mailing
1945
Northern
celebrated
ठान
alization
tics
रसार
ender
ams
लीग
रवृत
lists
विचित
भंग
ae
मौलिक
packages
Board
कते
attached
वैकल
belong
Hinduism
railways
pair
Fl@@
रने
ented
origin
आइटम
ining
-स
चेतना
objects
bing
busy
गाँव
गयीं
1931
i.e
Be
forget
ious
देखो
kill
sons
बोध
वाणी
lots
Tab
sending
लाते
ails
कहे
Screen
हास
वासियों
Bab@@
दिसंबर
िस
Hal@@
explained
गाकार
तकालय
1973
रु.@@
Pol@@
totally
धूम
feelings
victory
तीस
hardly
एल@@
Section
किमी
कोऋ
अभिवादन
distribution
नात
भुत
dry
अंश
जम
farmers
advantage
ith
Star
archive
discuss
Sil@@
1935
हॉ@@
मेदारी
Az@@
ED
आहार
thi
रशंसा
आनन
हाउस
कनाडा
hal
मुंह
7-@@
atives
ong@@
संतुष
stuff
तारों
मुड
showing
performance
याण
फौज
elled
weak
उग
आरोग
ori@@
weather
अभिनेता
ेगी
किताबें
Ayodhya
मिला@@
plan@@
बनवाया
बचाने
गुना
imperialism
sil@@
Abdul
हथियार
representative
delay
रेंस
vi
applied
Koran
१९@@
schema
-त
विचार@@
proposal
संपन
assessment
ideal
Sim@@
accounts
helping
हटाएँ
bal@@
शहरी
आबादी
गरीबी
यादि
यमुना
इकट
किसान
हवा@@
rat
रतिभा
Special
Telephone
category
Oh
रयोक
1994
occur
एम.@@
मॉड
inspired
shortcut
extended
सव
my@@
अपलोड
wing
positive
वसाधारण
integral
दिर
soil
recorded
pretty
कष
Aj@@
taught
डेल
बेचने
twice
ы@@
é@@
वां
इकाई
सदैव
लिख@@
सुनवाई
Science
मील
specially
पूछें
वकील
television
अ
बोली
abad
actual
२५
कोयले
दिखाना
मानता
वैसा
भावनाओं
shell
लत
षति
मिलना
ector
Will
skills
गवर
balance
youth
organization
YouTube
branches
मानने
K.
Fax
परिभाषा
beings
दवाओं
असंभव
कारक
यप
exchange
budget
भाग@@
identity
टाचार
सिल
षमा
Mr
08@@
डिग
रहेंगे
ger
हम@@
spite
ocean
उष
vital
competition
factor
भीड
linked
API
ील
ag
तापूर
रीकी
bs
es-@@
rap@@
ities
ular
evolution
nath
expansion
im
अंग@@
ौर
rer
launched
Sun@@
साह
worse
गुज
सकने
ush
ition
identified
सरदार
नवीन
une
managed
Devi
association
Terrorism
सुर
Space
pros@@
उद@@
लव
ily
holding
एगा
bre@@
ban
shop
warning
Lanka
nation@@
lake
dangerous
लगेगा
season
babu
सामूहिक
ंडा
guide
controlled
बैक
कम@@
editor
षत
breast
Yet
बन@@
पादित
reli@@
Apart
spot
आँकड
रिड
Sen@@
ishing
टॉल
Haplogroup
mi
30@@
टियां
शून
arrived
HOST
cross
वापसी
devotion
नियोक
ind
Try
bound
division
ढे
बनता
ises
Allahabad
ins@@
मतदान
१८
childhood
खतरनाक
दबा@@
communities
Input
85
Besides
रूट
prison
ईरानी
plane
जवाहरलाल
atmosphere
everybody
observed
पहुंचा
flowers
pa@@
लाइंट
acting
कैसा
Options
घू@@
दोषी
चतुर
ME@@
opportunities
Certificate
चाहें
तविकता
टेम
Authority
समाजवादी
Cr@@
Eastern
असम
Museum
लैन
यां@@
Manager
सारांश
provisions
bles
कॉपी
tube
Close
av
निकाला
Shri
ase
मेज
पीने
identify
ेने
नामकरण
चलचित
verse
विराम
Shiva
regarding
परिसर
tors
बडे
Mark
mp@@
enc@@
bor@@
willing
उमीद
sn@@
urban
तालिबान
connections
engine
accident
मो
nar@@
तीनों
Ti@@
tools
eth
अभियुक
charged
गाँधीजी
grown
जार
छूट
सीमाओं
evil
Es@@
सोचना
Jag@@
branch
о
cont@@
drop
blind
बीस
telling
48
लैक
Sometimes
Mc@@
admitted
dynasty
खी@@
proc@@
यि@@
Mer@@
विविधता
ेट
Over@@
बैटरी
मछली
थे.@@
Pri@@
छोर
तुमने
ners
यकताओं
गरम
गौतम
restart
सी.@@
wise
188@@
Email
issued
ॅा@@
किसानों
cul@@
ris@@
Cre@@
Software
वृ@@
warm
नज@@
shot
facing
हमले
बैकअप
visited
हरि@@
containing
radio
Member
Security
बालक
1942
organised
Russia
rel@@
यताओं
गो
Application
Mand@@
burning
Kingdom
चाइल
आधा
territory
BC
डू@@
imp@@
ours
Rem@@
यपूर
follows
ourselves
ental
multiple
African
Play
Vir@@
ैं@@
देशी
SS
सियों
palace
tells
आध
रमा
52
पादों
ys@@
गंतव
-up
Wor@@
records
cast
ahead
referred
इंड
Pacific
providing
यावसायिक
answered
Mur@@
carefully
Status
ander
मानित
Dec@@
छपाई
ard@@
handle
Christian
ंसी
वात
अनुकूल
पंजाबी
मादा
verses
पब
Width
माह
यापी
pipes
जगहों
जज
vic@@
gri@@
मग
ole
तिब
hur@@
Amitabh
joint
सेकंड
नियन
directed
Met@@
stock
appearance
घंटा
afraid
ei@@
नदियाँ
रीष
पाये
9.@@
nobody
सोशल
पौधे
दूरभाष
has@@
नतीजा
e.@@
wa@@
गिर@@
िन
मानों
flight
Americans
वराज
Masters
firm
pun@@
dig@@
Cur@@
ake
1970
रका@@
Tata
1971
ici@@
establish
जाया
ika
cour@@
endra
passing
tests
1982
तरीय
ने-@@
Main
हिल
suffering
नागरिकों
band
षरों
रारम
Award
कायम
36
expenses
61
बुक
Remember
achieved
वभाव
Sir
वायु@@
Er@@
database
टैक
आकृति
कहानियाँ
faces
tal
administrator
बनाम
gre@@
तीनी
1857
streets
roof
illness
रेषित
ature
Literature
अतीत
sum@@
कमेटी
1921
ञानिकों
ठों
आराम
सपने
rulers
ger@@
Good
novel
35@@
रायः
ere
कीबोर
operating
डोमेन
putting
1989
teachers
Kur@@
Mis@@
बताता
Wal@@
पेस
desire
मोटे
मोटर
धांतों
bra@@
Police
Tribunal
हिंदुओं
रपान
pixels
Al-@@
Br@@
ward
grant
गिनती
connecting
atha
leg@@
quit
समझता
improvement
key@@
शह@@
relation
वतन
cat@@
यूनिकोड
मतभेद
राथमिकता
Bat@@
analysis
Line
poets
धातु
बग
ading
जमाने
diabetes
रीलंका
पाइ@@
sor@@
डियों
पोषण
फारसी
itra
begins
regularly
पिछला
उक
Mahabharat
voluntary
इसको
rows
acid
अण
मिर
संगठित
̧
documents
ck
izing
साँस
ratio
ऋषि
weapons
channels
Phone
drawing
Bhar@@
tal@@
मल@@
मैथुन
ays
fying
कोयला
tro@@
71
हरी
समाहित
काली
विलय
५०
Connect
minds
शय
to-@@
loved
ros@@
अधिकारिता
Transport
players
रथ
रय
१७@@
बोलने
inal
Devanagari
ona
बू
बादल
TS
वानों
suggested
eth@@
याज
ication
Nations
400
यसभा
quiet
लॅ@@
रियता
leaving
listed
गति@@
Ed@@
उपक
Independence
सजा
proceedings
रयोगों
शल
Run
फलस
कौशल
killing
authentication
राय@@
ards
सितम
dh@@
0114
छू@@
आँखों
Sol@@
दशा
sy@@
पैर
धन@@
ुरान
depend
पस
ora
बनाता
गण@@
complain
38
congress
56
don@@
लल
भय
attitude
Ke@@
forests
ual
मंड@@
चिट
RA@@
A.@@
ush@@
भूख
gam@@
Best
Das
सोचने
आंखों
गणित
driver
encourage
टेज
पल@@
बुकमार
acted
pressed
षे@@
चेहरा
गांवों
तरदायित
टियाँ
विष@@
consists
ton@@
परिचित
miles
इंसान
आयोजन
बनना
Bra@@
fuel
जम@@
उल@@
Gang@@
indicate
sight
tioned
educational
आखिरी
League
dB
permanently
jan
adults
cotton
नॉर
इर
मरण
bug
भावी
ict
रोम
Value
ect@@
ust
दीपावली
feature
150
med@@
certainly
tered
Mil@@
वरिष
adult
sounds
Society
बतौर
रूपों
भंडार
जस
तकर
keycap
Surdas
ols
structures
summer
रकम
सूच@@
trac@@
अधिष
-ए-@@
शो
दुश
२००७
Ministry
High@@
reply
60@@
hai
ए-@@
Stop
horse
Switch
कहानियों
कचरा
War@@
combination
यं@@
षि
а
बजे
isation
composed
धारणा
yellow
ीय
ects
ाल
दीक
टान
शुरूआत
खेलने
शानदार
burn
मोहन
courage
gener@@
घि@@
रोस
नर@@
रोचक
परिभाषित
पेज
रेटर
संकलन
Sita
होंगी
drink
ओह
cars
काम@@
James
served
पाद@@
वोल
Yamuna
55@@
पिंग
hat@@
Var@@
भि
improved
काला
फायदा
maintain
initi@@
mut@@
guidance
bear
नोटिस
scholars
down@@
बेटे
formation
IS
रेरणा
CH@@
osis
atic
Arjun
चोरी
लक@@
trading
कुशल
complaints
sudden
ium
यर@@
ॉ@@
bridge
attacks
कहें
उज
spoke
wasn
decades
आवास
मजबूर
immediate
केस
IATA
नेपाली
ञों
gh
correctly
नॉ@@
काबुल
ool
island
essentially
उसको
bought
sol@@
easier
doors
अनुचित
Ved@@
किलोग
धीमी
199@@
launch
यकीन
गुणसूत
vis@@
equally
बनाती
suffer
43
part@@
54
देखी
seller
परिवारों
अधिकरण
sit
mumbai
उदयपुर
किताबों
अलवा
ly@@
committed
coll@@
इलाकों
fur@@
रमिक
double
निभाई
Cap@@
बई
काने
emergency
obtained
Em@@
alist
beg@@
निचले
ears
year-old
sites
Nir@@
जरुरी
relief
lets
ied
गिरावट
Ter@@
rare
259
detailed
Community
zed
गुज@@
Manage
ani@@
alo@@
sha
top@@
वरी
des
ides
fun
requirements
foundation
Gupta
Sup@@
fresh
तऋ-ऊण
attribute
Mir@@
रभा@@
slowly
wealth
educated
Himalaya
8.@@
mad@@
Gibraltar
obvious
41
१४
finding
शृंखला
पहल
Games
वध
Tim@@
Install
Uni@@
pieces
mere
विकलांग
forced
tes
फसल
Open@@
1938
danger
pre-@@
Ja@@
dia
satisfied
movements
लायक
calling
1946
stands
chi@@
trash
घास
लेस
चार@@
happiness
spoken
वासी
Report
ON@@
बचत
Madras
impl@@
यकर
oes
अंततः
घो@@
तारे
TION
conference
औजार
director
Dam@@
डॉ@@
sum
कहलाता
बाँध
Volume
adding
entrance
जंग
apped
akh@@
ney
बिक
गुण@@
Connection
Guru
pe
फें@@
shi@@
ruler
Ay@@
Remote
relative
थी@@
rav@@
1960
51
गारंटी
सुस
बदलना
Restore
जला@@
वीरों
Sel@@
डु@@
ICAO
थु@@
भरोसा
रियासतों
दं@@
forwarded
Executive
करे@@
masses
फी
रखती
soft
Gl@@
कलाम
हालाँकि
जबरदस
yr@@
funds
शं@@
रौ@@
रीट
saving
हनुमान
पाती
Sch@@
caught
दूरदर
गोली
PIN
wage
ells
seat
Mobile
Dep@@
राहक
वंचित
1928
granted
warming
writings
believes
रोमन
anga
concern
battery
pure
fu@@
देगी
finance
Subhash
सेवा@@
सपोर
Reg@@
rop@@
माल@@
तंभों
Title
समे@@
ography
ेंगे
technical
mills
ढांचे
pose
नाक
हन
बहादुर
Rel@@
हमला
निदेशक
थिती
games
whereas
humans
सुख
डेटाबेस
लख
lord
SI@@
आड
statistics
चिल
तख
ko@@
रियल
रबन
Indira
चोट
GP
१०@@
sem@@
Forward
ost
-based
terrorists
लगाए
convert
manage
conc@@
mid@@
Download
despite
सख
Haguichi
आमंत
शन@@
दिसम
महाद
elephant
रखकर
bet@@
determined
रतिवर
legislative
pension
oldest
विचारधारा
practices
designed
बिया
हुईं
ganga
aci@@
ст@@
नेवाली
Pand@@
raj@@
सबके
resource
सहमति
degrees
sniffing
entries
ऋद
vac@@
SO@@
संशोधित
Custom
58
chapter
संसाधनों
cy@@
बाधा
Times
obtain
95
रदायिक
RSS
दै@@
लेबाजी
Background
बैठा
रोफाइल
LA@@
Gur@@
legislation
th-@@
trouble
inj@@
employer
रामलिंग
जाओ
bon@@
advanced
senior
बरी
dictionary
Mun@@
flower
istan
intended
ूम
बंध
product
संचित
लीन
university
अहमद
आल
journ@@
Bor@@
wonder
संतुलन
ञ@@
flat
New@@
г@@
possibility
सदनों
Related
sand@@
नयन
रतिबंध
जगत
Greek
vir@@
expenditure
peoples
represent
twenty
ky
ан@@
संबद
seats
citizen
1983
ich
Sin@@
सफर
nagar
Sang@@
patients
eted
RO@@
strike
work@@
ization
जानती
ऊंचे
महाराजा
num@@
रूसी
तकें
eu@@
खू@@
wings
kings
गुरु@@
पैक
समारोह
reader
dog
ayan
कैम
शायर
trust
हैः
साथियों
pu@@
योग@@
लिफ
Iranian
provision
professional
रोजेक
header
रमाणित
TE@@
plays
teaching
रते
देनी
नमूनों
खरीदने
tag
संघ@@
टॉगल
faced
हैं-@@
लेम
him@@
M.@@
रशांत
ony
कीमा
ून
genetic
attacked
akes
Members
सेटअप
गुणों
लाइब
नी-@@
जोशी
dealing
शंकर
रिय@@
देन
difficulties
मैनें
instruments
शनिक
flag
instructions
OR@@
अवतार
Gand@@
लाहौर
demands
bird
डार
Pen@@
पुरुषों
clothes
दगी
बेकार
ओम
Arabs
Position
engineering
meter
निगरानी
ese
inary
शाला
ENT
साहब
helpful
कूट
थी.@@
धारी
कठिनाई
kers
Mail
Sum@@
peak
लेगा
til@@
हितों
40@@
01
अशोक
largely
पन@@
train
4.
फैला
offers
Client
rose
shaped
ware
Manchester
exit
Aut@@
pic@@
मारने
arrest
Tendulkar
sam@@
होल
धड
Legislative
The@@
विधा@@
ula
eful
अनुपस
shops
हां
करों
ॉ
OF
scene
false
इंतजार
artist
Backup
fol@@
a.@@
Join
जीनों
आँ@@
डी.@@
Action
Box
Gh@@
ऊन
कारावास
रिपरिषद
59
fic@@
चमड
उप
अमर
वु@@
nice
usage
Human
250
Vol@@
combined
फैसले
बुलाया
zz@@
अविश
रतियोगिता
किट
ea
Location
उठा@@
Survey
चुनी
La@@
सीखा
खंड@@
anywhere
virtual
conduct
AND
gradually
ows
Three
सचिन
कुं@@
वासन
टीज
लोबल
severe
uring
तालिका
yas
Over
आचार
administrative
Region
ंगे@@
रवास
ंगों
68
बुर
influenced
मंडल
DI@@
संयोजन
Det@@
thir@@
छेड
Saudi
apping
जेम
निकला
worry
HIV
soldiers
purchase
exc@@
दुसरे
भौगोलिक
कोशिका
aspect
रमा@@
षिका
das
वाना
Fund
Nadu
day@@
OK
Abu
धार@@
परंपरागत
bling
communal
ken
regul@@
समाजवाद
धीन
इनसे
गियों
डेविड
बदलते
ca@@
वाधीनता
3,@@
ues
सीखना
ju@@
Global
CO2
फलक
पादक
girls
DA
chemical
इश
1981
COUNT
िगर
ene
land@@
अकादमी
Hanuman
Sat@@
निकोबार
पेक
बेहतरीन
models
aspects
rooms
Available
adequate
दाँत
नाल
टेलीफोन
welcome
चालक
domain
ack@@
पाठक
दुबारा
loaded
Som@@
doctors
धब
Meh@@
uri
रिकी
module
va@@
कैं@@
GDM
बजाए
sive
Level
sacrifice
1936
बंध@@
consumers
Gi@@
निधि
राव@@
Hide
बंधित
रमित
निका@@
सृष
Kabul
sick
aded
धिमान
कुत
चालुक
Radio
ंडी
रचनाओं
मुँह
shar@@
positions
advis@@
sought
षण@@
अध@@
fel@@
stages
वयुद
IP@@
याई
sacred
कभी-कभी
ँगी
arrangements
टूट
ोटो
payment
े-@@
TITLE
owner
MMR
थाई
रिलीज
asi
षियों
dies
वरन
मुंशी
आंखें
token
equality
profit
Assam
texts
Ob@@
सूरज
Force
replace
ro
-R@@
wid@@
Monmouth
Sk@@
brothers
अँ@@
pet@@
ous@@
डॉ
Av@@
AB@@
zing
metal
at-@@
garh
नू@@
tem@@
नरेंद
watching
Third
scar@@
टिव
Further
वाचित
पी.@@
लगाते
लिश
discover
आधी
षि@@
info
ought
sev@@
जरिए
trader
दुस
ER
आजकल
फॉ@@
squ@@
deb@@
Topics
बारह
wat@@
dic@@
इंदिरा
cursor
षऋ-ऊण
sequence
बचा@@
seriously
सिको
sand
Food
लिमिटेड
Nam@@
turns
NO@@
मुग
mag@@
universal
all-@@
आइ
यूरो
dra@@
block
founded
Zoom
Power
सूचक
लाए
थाएं
Provinces
grounds
Cal@@
behalf
Jewish
Canada
यकार
sister
comments
breed
मकबरा
शरण
apur
diet
summary
दारा
गंगा@@
narrow
मद@@
MP@@
ोड
falls
थलों
infection
eter
तावित
worker
bin
ए.@@
निक@@
expressed
करवाने
surrounded
vol@@
rep@@
यावहारिक
consciousness
efficient
solve
राई@@
कवियों
tourist
बुश
Kolkata
78
विपक
Ramalinga
यक@@
Access
mus@@
compassion
Valley
mal
employed
itation
रबल
पशु
fron@@
tains
tis
remarkable
1949
गणेश
requested
symbol
audience
हाइ@@
बुरे
डवेयर
net@@
UN@@
00-@@
tain@@
चलना
बीज
Azad
Mas@@
टोर
बालों
Up
lit@@
षात
अंतरफलक
alternative
stored
1929
यायपालिका
एक-@@
ेक
कपूर
winter
contrast
Nicobar
दश@@
किरायेदारी
1978
dedicated
ढा@@
silent
б@@
पदों
herself
इक@@
prominent
recognised
मोहम
वनस
op
corruption
अंत@@
Kerala
Tel
constituted
दवा
साहस
topic
षाओं
encrypted
eness
park
पंख
उपेक
53
1943
Chairman
पशुओं
बांध
continues
निकले
whenever
आधारभूत
रवाद
but@@
नवम
Dr
योनि
मेजबान
detected
feeding
gate
raj
वचा
बाल@@
absolute
अभियोग
ME
दाँतों
बो
ette
PRO@@
customs
Table
duc@@
S.
ST
जितने
ink@@
UI
हाई
नेल
बनकर
port@@
चुन
रगतिशील
चुनने
prec@@
edit
गें
priority
regional
सुल
of@@
ack
soci@@
रजिस
low-@@
objective
broke
Film
लग-इन
Kha@@
pleasure
organ
यानों
Child
hundreds
लियन
सकारात
गुस
bigger
̨
arian
ected
apps
पढ@@
refer
बडी
चलती
ठे@@
नास
सने
कैप
suffered
शेख
बोला
preview
leads
तगाली
eless
basically
189@@
yam@@
realised
brings
वच
ishes
Russian
anim@@
oring
अंदाज
खोला
1937
Pi@@
बच@@
Arabia
Hy@@
मती
BBC
We@@
difficulty
dam
शियों
सफाई
निको@@
reaction
Rai
ric
long@@
oned
asc@@
affairs
opposed
मजिस
Att@@
पूछताछ
रभावशाली
शिता
pers@@
cooperation
रदाय
जाँ@@
discovered
eshwar
broad
Hol@@
Series
Black
row@@
धैर
literary
माताओं
finger
fourth
मचालय
contract
faster
Carlo
sanskrit
list@@
tenancy
Login
au
संग@@
pane
CPU
specimens
ृ@@
Configure
JavaScript
Publ@@
ॉक
Lahore
ree
००
याय@@
Andaman
drinking
सेफ
Shiv@@
layout
ive
inst@@
Business
personality
जात
perform
wal
णतया
धरोहर
लिखते
जंगली
Automatically
dep@@
Kun@@
वाणिज
ori
entation
arguments
bus@@
harm
я
Printer
lesson
Ha@@
proud
compl@@
रर
cop@@
Cer@@
federal
ord@@
विसिज
पने
81
agencies
मच
मू
slightly
forming
नीड
passphrase
spending
bers
eta
eventually
eries
bowler
alized
Jawaharlal
translated
नाते
सत@@
Have
dest@@
परवाह
दावे
ре@@
मंदी
रेय
supreme
percentage
quick
देशित
री-@@
imports
रचनात
Ka
वरुप
रोकें
महर
तिलक
दात
considerable
सुलझाने
नायक
Mode
फं@@
अंडमान
destruction
crops
10,000
tiny
Ang@@
नवीनतम
विटामिन
टिका
नींद
िम
सवार
mas@@
ंच
rising
aps
भीष
साधनों
पुण
high@@
ation@@
ढूँढ
trav@@
चारा
दीप
spec@@
1976
itude
graph
hall
मेहनत
घटा@@
precious
recognized
बिट
pointed
पाल@@
पंजीकृत
रोध
districts
amed
oh
राजाओं
अपराधी
उठाया
ater
yo@@
Under@@
लंघन
ot@@
ras@@
antly
१३
लगइन
corners
वड
बिहारी
अपवाद
Bahadur
dependent
ат@@
मना@@
मुख@@
प-@@
AD
Sig@@
शौ@@
exports
bat
pop@@
शाखाओं
Calendar
dir
sharing
रेत
pul@@
खासकर
करवा
डालने
guarantee
अनुसरण
radical
ь
wr@@
पटेल
आवर
कारा
बंग@@
PA
Punjabi
Muk@@
मुम
मनाया
तनाव
साई@@
epic
chi
२०@@
Religion
सुनाई
hide
संचिका
आदत
सभापति
वाइ@@
Mang@@
shrines
owned
मेक
proof
तला@@
रूप@@
consequences
catch
निंदा
Indra
Selection
चेक
जीव@@
Unit
सीधी
तरक
रिं@@
Charles
बाजी
aar
uk
Library
2012
int
ink
cher
0870
truly
खोजने
End
८०
वेन
dreams
repairs
संभवतः
athi
वनों
46
वेश
Tw@@
Log@@
१६
mount
घा
वव
titude
बगैर
लिपबोर
Source
hes@@
newspapers
Madhya
लेखा@@
नव
egg
पंडित
नाइ@@
सबूत
संगत
aircraft
विख
पहुँचने
शासित
२०००
copies
दिखाता
awarded
डिपार
चारण
मंड
पहुंचे
पां@@
rid
केरल
noted
agency
saint
ूर
नागरिकता
दूत
१९९@@
दोलन
वरीयता
daniel
यव@@
non
रौढ
Lu@@
लाखों
बचे
Ni@@
नेक
आतंक
Environment
महासागर
ंं
Kir@@
vary
van@@
झे@@
गनोम
`
दाता
आदेशों
eding
1974
संवेदनशील
abroad
मूवी
experiment
निप@@
bes
Industrial
Au@@
खिलड
कीजिये
पद@@
बार-बार
तिहाई
Saint
reposted
नुक
खण
writers
करवाया
Verma
सीढ
liber@@
Siva
planned
representatives
पूछ@@
tain
ud
principal
हँ@@
Karnataka
Water
ढो@@
Jews
rest@@
sup@@
थै@@
पम
गौर
Frame
षतिपूर
कराना
ऐ
alam
Top
cloth
पक@@
खुल
लाइसेंस
संतति
हल@@
पौराणिक
विकि@@
establishment
दायित
haven
familiar
पावर
і
properties
increases
Pos@@
ऑक
succeed
with@@
Version
contribution
responsibilities
CSV
improvements
२००५
अभिन
aji
काण
ough
1.5
generations
stat@@
आय@@
ful@@
Hor@@
two-@@
कॉर
मौके
opposite
पिच
टेबल
SC
organs
ordered
महि@@
Pop@@
Never
movies
ome
Clear
पायी
qui@@
detail
grad@@
सिया
ands
Sun
carbon
ump
clo@@
esting
victims
Sort
१००
Soviet
Cup
anger
vers@@
aria
anyway
noticed
hO
चलाना
ik
regarded
किरायेदारों
196@@
seeking
sli@@
दिखता
mm
meters
छे@@
App@@
दुख
तरा
fed
पलेट
रीक
bat@@
tail
नियति
Democratic
cattle
occup@@
embr@@
Englishman
wheat
Turkish
manufacture
SP@@
बहती
advance
भारती
supposed
dri@@
Tur@@
जक
जय
Dom@@
मोंटे
छः
cope
मंद
खिला@@
angle
थरों
Hon@@
98
नील
वां@@
195@@
Joshi
val
od
configured
भरता
बढे@@
Kap@@
scored
मनपसंद
heaven
ंच@@
Islamist
रवाह
secre@@
वाशिंगटन
signature
yas@@
खूब
ते-@@
protected
imprisonment
resolve
mention
alive
शिशुओं
1941
cabinet
Cont@@
rab@@
कतार
fix
ुद
ades
दौ@@
MS
पुराणों
सचिव
occurs
आंशिक
boo@@
Pres@@
पाउंड
ads
लेशन
ania
आख
बताए
ॊ@@
plugins
express
expensive
Jal@@
anch@@
जागरण
उठ
platform
Brah@@
ढूंढ
एहसास
organized
keeps
कायदा
औपचारिक
ac
गले
á@@
टरनेट
धियों
LDAP
fy
substantial
favour
वाहि@@
हते
cancel
lands
इब
सांख
tering
वयस
agar
रीसेट
gift
ऊंची
ढे@@
deeply
1908
Light
facility
everywhere
Bangladesh
माइ@@
checked
ен@@
मामल
Oc@@
घटिया
पैड
HE@@
high-@@
main@@
Dr.
Paper
mixed
ga@@
सहेजने
Financial
सन@@
ables
Monte
63
79
बाड
रूढ
१९६@@
purposes
कना
Ombudsman
assistance
मोन
अक@@
syn@@
BOLD
Ty@@
बजा@@
commun@@
पट@@
TH@@
rad@@
switch
ministry
ऑफिस
Purana
अनुदान
राणी
भूत
हौ@@
threat
J.
हुसैन
golden
भरपूर
यॉ
jun@@
बहुमूल
संबोधित
realize
देशक
arch@@
☺
1,000
उपदेश
मकसद
येगा
पेरिस
माउंट
Path
targets
bow
जयपुर
Diwali
Continue
टूल
Standard
Deputy
papers
रजा
cultures
sweet
mir@@
ेन
Portuguese
Memory
dur@@
Mos@@
गाने
sanc@@
Gar@@
ya@@
reforms
सित
शे
intellectual
उस@@
ood
oot
ny
ईं
शकों
paying
Cop@@
जातीय
enemies
bright
knowing
Dakota
अपूर
1979
ऋग
विशेष@@
खलीफा
पासफ
controls
ills
ऋतु
tend
रयोगशाला
Full
aur
भरत
88
बास
गतिविधि
भद
भा
smile
ं.@@
quo@@
pra@@
Brahman
पंच@@
SD
पैदल
icons
darkness
समझे
sake
Output
mosque
ठे
mem@@
turning
Browse
धीरे-धीरे
निवेदन
तुकला
Compl@@
ailed
नाग@@
रप
iled
तारित
Mic@@
determine
imported
mos@@
संधि
wild
mak@@
x-@@
१९७@@
विधानसभा
customer
अपना@@
पाषाण
occasion
कहा@@
इनको
२००६
चलाएँ
oms
treasure
नेत
रोका
UT@@
नींव
दरों
regime
Languages
Charter
Loc@@
लगाकर
encies
porting
fairly
kha
ration
Pakistani
three-@@
रोजगार
ावा
विषयक
thi@@
somewhere
यूनि@@
cip@@
इधर
ब-@@
civilization
कण
solvents
sch@@
देखेंगे
इट
अहम
Sheikh
Net@@
loading
४०
बृ@@
यायाम
मीन
हिम
eled
formal
चिप@@
Paris
रूर
1955
fifth
Ministers
recommendations
ई.@@
ult@@
pp@@
निभा@@
लेखनीय
clipboard
गीकरण
graphy
ultimate
यूनियन
cool
भीतरी
छल
बुल
Foreign
गज
वय
ective
Coo@@
dispute
essed
loan
1932
ास
approved
SC@@
finds
museum
पाक
alised
slo@@
यैक
U.@@
Men
extreme
Secretary
वादियों
eration
comb@@
अखिल
sculptures
डीवीडी
errors
मशीनों
umps
Bah@@
Musharraf
binding
robot
spe@@
patterns
dings
P.@@
भूगोल
experimental
smoking
SSL
आह
yer
पाएंगे
थापत
रमश
सिंक
वन@@
classical
Mem@@
mood
अमल
जीवनसाथी
struc@@
कोटा
afford
typing
कोडिंग
सोवियत
heads
intr@@
dam@@
धू@@
ew
सूरी
dom@@
Kalam
माँग
अधिसूचना
केश
मक@@
मजदूर
crop
ढी@@
core
ईन
begun
आरो@@
मामूली
blank
अनुमानित
Load
cri@@
weak@@
non@@
lim@@
introduction
magic
निन
nor@@
Ka@@
साँ@@
CA@@
वायत
stor@@
करवाना
Copyright
experienced
yar
Sab@@
झा
करो@@
कैश
le-@@
इयों
Dhar@@
dollar
Wil@@
रमिकों
networks
वोट
Officer
रफल
रसारण
62
consumption
Lock
printing
भड
dome
ign@@
मादक
Pu@@
She@@
तिस
shut
rejected
ils
रैं@@
AI@@
Fre@@
दबा
Patel
singh
Italian
rock
lights
maintained
pradesh
रिये
lip@@
ung@@
पागल
plain
deaths
ाया
tin
दुष
Kab@@
नजदीक
modified
डु
BO@@
components
लगाये
PO@@
Bureau
fier
closer
arrow
यायाधीशों
ignored
tis@@
ताजा
Revolution
elling
vid@@
टेन
बंदरगाह
traditions
lic@@
सोनिया
anas
Roman
CI@@
reaching
sign@@
झ
रुद
रुख
१०००
रिचर
थानांतरित
षो
memo
वीरें
आपराधिक
एस.@@
closing
सतर
Air@@
दलों
लाक
१९८@@
रवादी
ш@@
passage
उतने
या-@@
folk
yan@@
transfer
represents
मिटाने
बटण
Men@@
tru@@
Wat@@
सहानुभूति
Young
analy@@
समितियों
नाम@@
फोट
ऑन
seeds
employees
बेटी
खपत
duration
foot
route
सौंदर
historic
यूरो@@
दरवाजे
खूबसूरत
इमारतें
Bollywood
जुर
environmental
रोटी
रंगों
बेस
कामों
disable
anybody
Mohammad
enormous
टं@@
पिस
vertical
ı@@
शुरुवात
आनलाइन
2011
Leg@@
negative
implementation
belongs
ऊंचा
खेती
delivered
radi@@
मुखी
निकालें
meat
सफ@@
जीता
shift
मुशर
dioxide
Sad@@
mun@@
component
computers
सिवाय
emb@@
athy
organisms
जत
revenue
parse
मर@@
promote
कोश
रामक
सुल@@
अपर
direc@@
iti
defeat
tied
Automatic
ref@@
Committees
कारा@@
आरक
strategy
enter@@
पाप
Giver
वरीयताएँ
destination
शनों
destroyed
मौन
ign
यवान
IN
बोझ
convinced
Link
Lucknow
wo@@
चयनक
Gener@@
याकरण
मारि@@
N.
खरीद@@
रहकर
Kat@@
gardens
विरासत
सीन
Till
उपाधि
600
जीने
toward
gene
लाइट
hun@@
commission
लैण
ment@@
cle
imagination
NASA
Photo
stra@@
andi
Himalayas
ing-@@
lying
sold
tionally
holiday
ेस
batting
टीके
pick
RAID
ther
forth
brief
aran
invited
injury
signal
दोहरा@@
exclusion
tivity
खन
कानूनों
departments
कन@@
Turkey
sub-@@
Disabled
Emperor
cent@@
Fil@@
मिलें
फाइ@@
यकालन
scope
tribal
Michael
साह@@
अटल
hardware
हरा@@
Himachal
selling
kan
socialism
e-mail
Je@@
inten@@
49
represented
शार
तारा@@
खरी@@
डकोटा
é
Label
destroy
ताकार
षाकृत
centres
flying
trained
अंडे
सूती
diversity
burden
माप
Rav@@
vehicles
oph@@
काँ@@
रवासी
merchant
cycle
1940
दवा@@
दुकानों
ured
Mohammed
wishes
conversation
LE
सेवाएँ
TO@@
definition
sid@@
istic
realized
destiny
mind@@
एंगे
अला@@
absence
बस@@
friendly
lu@@
royal
DOMAIN
Large
ini@@
reform
colors
Receiver
रजी
फर@@
अग@@
अतिथि
भरतपुर
चमक
Ass@@
१९
Finance
फैसल
ups
collections
may@@
6.
thinks
buying
मिन
nest
कवि@@
सुनी
दिखायी
Haz@@
बाबू
कती
ex
देशभक
DNA
Pad@@
इंद
वाराणसी
politicians
घुड
यूयॉर
username
193@@
हेल
रयाग
भेदभाव
चावला
ington
Insurance
यौन
भला
1st
नहर
realise
समकालीन
play@@
Jammu
11@@
glass
prosecution
कांड
योकि
painting
lac@@
promised
arity
throw
rang@@
Sem@@
Buddhist
ृ
uation
राण@@
mirror
37
cou@@
ado
aching
murder
२३
अमेरिकन
Il@@
suggest
जाँचें
सुक
67
Rename
रिब
Insert
Por@@
bills
Babu
dist@@
चरणों
manufacturing
sar
dress
MO@@
चलो
assumed
stayed
नं@@
sensitive
ida
लाल@@
घे@@
updated
new@@
Year
ES
Indo-@@
युनिस
mur@@
hus@@
half-@@
Son@@
tip
Du@@
शाहजहाँ
encouraged
काश
prob@@
violent
captured
Gal@@
Christians
functioning
stick
हैं@@
5,000
arm
दोहरा
Channel
लैं@@
गल@@
shadow
ö@@
महज
YES
गोपन
अनाज
संज
Dr@@
Nath
flo@@
दाहिने
१२@@
ections
हथियारों
ँगा
उपा@@
राग
नीला
नुसार
limits
yed
Art
लेलिस
AC
रीनशॉट
andi@@
याम
चम
expert
रॉल
constant
aur@@
3,000
ved@@
tomb
settled
discovery
Key@@
cards
ories
चिंतित
देरी
ession
collect
वरों
अव
ाद
set@@
surprise
fund
towns
residential
smoke
घातक
requests
रंथों
aver@@
liked
maintenance
यापित
Sharma
IT@@
eff@@
ine@@
contemporary
डिवाइस
elec@@
mixture
ञान@@
मधु@@
रवि
साई
ok
सउदी
anath
Does
Lin@@
bookmarks
sav@@
ie@@
Policy
Saraswati
एकड
territories
जालस
चिं@@
गायब
सद@@
wonderful
Log
डब
preferences
photo@@
पू
शेल
Spain
spell
जीवन@@
repeated
मसलन
1964
कंट
वहन
तया
इटली
Fe@@
१७
LI@@
confined
flows
characteristic
हंस
Ran@@
टिड
लाकर
bi
massive
fts
Chand
involves
बनवा@@
Brahmin
vehicle
आएगा
पंजीकरण
qualities
dian
शाह@@
drama
Details
ude
hearts
काई
valley
ero@@
fat
adap@@
Hari@@
Task
Firefox
replaced
यवाणी
रॉन
Maybe
मिलों
सैर
Sit@@
Indus
बसे
Modern
Martin
ron@@
sible
Mexico
दिखाए
Palace
विवे@@
बेशक
भूषण
sample
elephants
tour
extraordinary
holds
cas@@
धारावाहिक
टमेंट
Munshi
जियों
१३@@
mud
atta
दांत
representation
मकबरे
inath
flu@@
चुनना
succeeded
Mouse
commonly
वेयर
Layout
ऑर
offering
supporting
मिसाल
सुधारों
रावधान
पचास
ford
दारों
pen
DA@@
programmes
सुनना
Academy
ty@@
रथ@@
यार@@
worst
इकाइयों
breaking
Puran
thrown
2.5
सबको
commands
criticism
Udaipur
Sorry
कमीशन
Track
कुंजीपट
welfare
लाता
relating
काइ@@
ा-@@
कीमतों
50,000
रोगों
सिंचाई
टी.@@
bow@@
भगवद
सावधान
processes
नामी
hear@@
ually
emerged
pot@@
passwords
buttons
जवा@@
रवरी
बहन
अज@@
guilty
कीम
रसायन
भयानक
Ku@@
numerous
विधायी
Finally
97
डोर
सुधारने
खजाने
falling
coun@@
mine
Ul@@
consideration
वापिस
ete
काल@@
termin@@
brown
लॉगइन
circle
booklet
restore
खींच
रजातियों
अपमान
covers
Criminal
Dem@@
solid
beat
Pandit
kno@@
fonts
चुपचाप
गीतों
हिं@@
Fun@@
rit
हान
अकेला
Ari@@
fies
cache
C.@@
wal@@
rice
रतिकूल
ints
worldwide
समैन
guy
Browser
Back
submitted
इमारतों
amazing
operate
षस
ital
जॉ@@
absolutely
माहौल
MIME
aha
ंश
रेमी
Tajmahal
Dictionary
हिट
चलकर
rac@@
wisdom
inated
nom@@
studied
contained
बीबीसी
break@@
परिणामों
indi@@
नऋ-ऊण
२.@@
processing
गुणा
वरक
guys
Disc
कूद
नेवाला
अनिश
Order
oper@@
Linux
Front
रहे@@
breeding
lessons
Personal
ounded
oul@@
ino
ओस
medicine
Along
literacy
ध-@@
पहुँचे
B.@@
मायने
वरित
थम
छिपा
neck
शेर
ray
III
Gtk@@
सेवायें
विजेट
डाउन
82
tures
acquired
लॉ
significance
prefer
ом@@
hos@@
हवीं
रोगियों
Rad@@
पाइप
कारोबार
efficiency
C.
cru@@
किनारा
affects
Nothing
remembered
waters
Burma
ben@@
lib@@
दशकों
घाट
bac@@
scientist
depending
लेड
पारिवारिक
Andhra
Sec@@
osh
printed
engaged
aying
installer
PRINT
पुरूष
Kav@@
Cabinet
ananda
vati
Tu@@
1919
अरे
Protection
magazine
ens@@
Af@@
ision
कविताओं
Maj@@
aik@@
Panel
वज@@
excellent
aled
रविड
णायक
Himalayan
guess
electric
जाइ@@
ंगल
Tre@@
respond
anti
ररक
AIDS
1972
inevitable
परिदृश
tak@@
राइवर
edi@@
120
dre@@
resident
dness
uddin
Organization
itr@@
पैरों
generated
लेखों
कारगर
itors
धूप
Soon
ica
ains
spl@@
गुड
stable
सें
लखनऊ
ы
नाओं
meetings
बीत
आगमन
पतन
चश
NUMBER@@
CLOUD
Sinha
रहों
1951
informed
रोटोकॉल
Bir@@
मीरी
डऋ
cra@@
bone
संभवत
kid
Star@@
माफ
करूँ
carved
punishment
दंड@@
ंदा
लट@@
statutory
डाई
consequence
घट
raising
पशु@@
पेशकश
टीशन
2nd
olf
creative
जाए@@
राजपूत
जीडीएम
SER@@
यथार
respectively
Pul@@
spots
votes
CP@@
मारा
गंभीरता
रणनीति
Rang@@
AL
AN
राओं
Early
रार@@
सपना
acceptable
भरें
बाइट
जऋ@@
expl@@
ports
लाये
कृतियां
गलियों
S.@@
पेशेवर
learnt
लेश
Hu@@
grain
110
irs
quarter
locations
नियाई
सिख
काबू
मिलान
खुराक
backup
रव@@
उतर
उपशीर
पुनः@@
CON@@
डालर
Gre@@
Jaipur
हकदार
टिकट
लाज
िट
अट@@
कू
zoom
लामवादी
discussed
Sachin
बढाने
rever@@
ries
ईंधन
vaccine
90@@
bh@@
बगल
ववर
bomb
fail
gun@@
bil@@
आई.@@
codes
xed
delivery
consent
बेटा
बेतार
Mission
जोधपुर
greatly
describe
troops
....
झू@@
ंगा@@
नबी
यटक
tun@@
ility
धूल
मुआवज
Area
thesis
थिरता
रतिबंधित
गहन
ग-@@
बैं@@
ich@@
lev@@
provinces
ave
Pension
Movement
चुनावों
कलम
s.
sh
3000
Should
विधियों
Years
GL@@
पडा
गुलाम
1975
wan
Gan@@
घोष
valuable
Ros@@
dominant
constellation
यालयों
May@@
illa
mistakes
Rom@@
defeated
एण
00,000
conducted
extensions
lamp
esses
2,000
फैली
२६
कीं
करुणा
decline
pon@@
dropped
Writ@@
रशासक
var
Wales
91
Format
मिया
notifications
lar@@
Instead
Auto
Ren@@
आशंका
1933
केप
4,@@
Gir@@
mad
sively
ota
heav@@
portion
रती
attempts
vitamin
dict@@
फौ@@
Coll@@
DE
shopping
jan@@
कना@@
visiting
पांच@@
मुहैया
सैं@@
.2f
availability
UID
investig@@
thread
tan@@
47
playback
ira
split
पैलेस
तेंडुलकर
M.
कंसोल
complicated
secon@@
लनी
prior
witness
deser@@
ulated
यजनक
appe@@
बहा@@
राणियों
tracks
पंद
सूँघने
Fin@@
अॅाफ
लीज
constitute
ura
MAPI
payments
सदियों
foods
जेब
programs
आतंकवादियों
assigned
पीकर
Tel@@
US@@
fle@@
infrastructure
maoM
drag
Total
periods
सुविधाएं
राधिकरण
fought
Tou@@
TR@@
दायक
oud
Hamas
Lal@@
Tal@@
Param@@
टीका
ASCII
multi@@
हिटलर
गाना
thy
मनोरंजन
लगीं
completion
Bills
था-
PKCS
Dynasty
Cri@@
मूल@@
Rud@@
डेन
गेंदबाजी
sikhara
covering
comment
चुअल
बिगड
prose
eing
humanity
फूलों
Acc@@
fort@@
SHORT
Document
Bharatpur
रेसी
angry
awa@@
बियों
AIR
cry
spo@@
सिरे
हटाया
हालंकि
Ev@@
cave-temple
indra
औरतों
California
Women
socialist
आयतन
डम
बनती
वेट
सूअर
Vish@@
Simple
enn@@
USA
boys
-क
षु@@
Mother
मुखर
जोश
1962
जं@@
पांव
निरस
Coun@@
outcome
Comments
proceed
Ju@@
Indonesia
दमन
eligible
वट
वि
Sonia
अस@@
statements
sad
sale
rapidly
Old
पारदर
तिम
mark@@
सेनापति
रेडि@@
ाते
lah
सैकड
tionary
Chennai
terror
.1f
अनदेखा
earliest
मानस
uti
AT
Exchange
eting
tabs
चाह@@
ारी@@
हिंद
Ru@@
CE
रयासों
Mecca
ailing
De
आकलन
practical
biological
खां
Mak@@
समेत
लेबनान
ock
sessions
होटल
factory
तरित
चं@@
develop@@
अंतर@@
Robert
वादों
AG@@
अंतत
Nagar
Foundation
estimate
Read
सुनते
expanded
Similarly
नियां
सिम
separated
R.
Varanasi
ン@@
ced
sym@@
pace
कलश
Part
í@@
disability
survive
etary
testing
puts
ताई
monitor
awareness
Chawla
focused
Vo@@
1961
Filter
कुकी
varied
teams
.org
विनाश
mod@@
1922
1924
grass
websites
Hi@@
hill
daughters
sim@@
possibly
mand@@
सैनिकों
racial
ght@@
acceptance
भग@@
मानु@@
घटकों
aces
medi@@
संदेशों
witnesses
Creating
मेर
Non-@@
lakes
acqu@@
घन
Kalpana
ч@@
वरण
puri
Post
sion@@
stations
compare
Without
सुनकर
-L@@
दकूट
हटाएं
directions
flies
करवा@@
fer
united
मुमकिन
णि@@
राजभवन
emperor
And@@
एसोसिएशन
Saty@@
लोन
94
krishna
Preview
Point
तृ@@
ayana
iny
Gita
कोरिया
48@@
राणा
collected
गीय
picked
frequently
calcul@@
sanctum
hay@@
and-@@
Exc@@
Rash@@
Lok@@
Rag@@
सरी
कहकर
Authentication
69
कोशिकाएं
minor
Tilak
traders
87
अनंत
लि
पीले
मातृवंश
रूम
गोर
tom@@
power@@
Mut@@
Sand@@
सेना@@
पैं@@
तौ@@
सहेजा
झूठ
Political
aren
tries
‌
uta
सीखते
shoes
ent-@@
grade
कुशलता
येंगे
Hill
responses
rid@@
Tar@@
थगित
योजक
झि@@
महाकाव
दिखने
Equ@@
oured
Advanced
plo@@
conscious
counter@@
udd@@
sabha
कुण
Button
Team
जिहाद
horizontal
कमा@@
amounts
वामपंथी
अंकित
डिज
mes
V.
800
yes
Deep@@
दिखाते
hard@@
zero
businesses
भाषा@@
रखिए
ममता
hak@@
wards
explanation
लौटने
Crown
Pun@@
.0f
६०
रीकरण
तथापि
breasts
fold
भृंग
assured
mul@@
suit
han@@
Directory
Empty
af
somewhat
काशी
विधानमंडल
colleagues
Forum
पीछा
अपनाने
शिप
rear
prepare
fs
encoding
इंच
depth
जीतने
पुन@@
यवेक
П@@
अनेकों
swe@@
बेच@@
breathing
infected
मरने
қ@@
मरी
Festival
नति
attracted
ंघ@@
मैप
Dra@@
चिड
onal
chairman
संकलक
fting
निशान
resulted
अवसरों
Royal
Dal@@
लिपि@@
Sound
Wi-Fi
premises
रणा@@
lu
applies
नाई
नाश
Trash
Country
-1
रोतों
बंधन
२००
वेर
डिजिटल
Spanish
und
daemon
veda
swit@@
mar
Being
माद
rig@@
read@@
aches
discipline
Gulf
frames
जिसको
vegetables
रामकृष
Ud@@
1967
yana
Lebanon
डवों
आईएमई
डक
amongst
declined
रिन
Sug@@
वेद@@
specialist
मि
रूद
Lab@@
जांचें
pollutants
had@@
alls
तुति
elev@@
ode
coast
Very
Ocean
Direc@@
मारी
सुन@@
ules
छिड
Blair
Vas@@
pay@@
threw
घिरा
रोटीन
developments
ाक
Bar
Okay
e.g.
शांतिनिकेतन
sle@@
atra
behavior
सकर
Summer
sculpture
सूरत
कालिक
iri
extend
oss
honour
अनन
divine
काना
वंद
roots
रीवा
मिटाना
ंगु@@
musical
igh@@
MI@@
producing
इशारा
निपटने
speaker
itable
accoun@@
cli@@
artificial
ताप
ढाल
nearest
Rights
विमानों
ंक@@
वादा
mol@@
Iraqi
configure
बी.@@
separ@@
खुफिया
कहलाती
separately
fast@@
ंगर
Swaraj
Restart
aa@@
evolved
deeds
closely
दोष@@
Railway
distinction
थानिय
तृतीय
अवधी
rob@@
घेरे
डने
रंगीन
fruits
struck
इनकार
m-@@
march
entr@@
approval
appl@@
लाई@@
मकालीन
बिज
दी-@@
nose
टाइल
emer@@
अनुयायियों
Previous
दिखती
भों
1985
Winter
filling
दौरा
बैठ@@
belonging
harmful
Olympics
experiments
ढेर
suggestions
guest
अफ@@
रैश
Doc@@
removing
परिश
ऐन
Queen
indic@@
ums
कॅा@@
दार@@
crossing
enting
रणों
खंडों
Jodhpur
कैद
रमाणीकरण
chromosomes
en-@@
वरीय
FI@@
Hind
decorated
mic
२१
plenty
आपत
परत
gin
ठु@@
careful
Object
83
डिब
console
बान
Agency
लेनी
ples
emission
लामिक
chandra
नशीली
stronger
bacteria
Sri@@
Election
जैक
Bang@@
यादव
अदृश
Warning
मस@@
आद@@
मुकाबला
मता
कैसी
bal
Protocol
विवा@@
शव
yield
खाई
किराया
वास@@
Professor
लाती
uda
टीन
ठाकुर
चने
रब
younger
इंकार
विया
IT
vit@@
dealt
registration
इलेक
कमर
MP
indigenous
Cancel
जिंग
arch
Arjuna
संतान
पीटर
सीकरी
prayer
twelve
pool
coloured
adh
वली
obviously
relatives
कचरे
corporation
जेक
शू@@
आल@@
शोषण
डिजाइन
evol@@
सिंगापुर
carers
Management
Sm@@
याएँ
Mohan
Liber@@
web@@
intercourse
विकासशील
1920
Bacchan
fallen
ारा@@
handled
टैगोर
hence
promise
यूं
योजनाएं
मंजूर
IME
अमीर
उठता
Cir@@
mtDNA
isa
sen
long-term
fav@@
हानिकारक
Drugs
bha@@
आम@@
रियासत
aram
rarely
ef
Shr@@
lady
DO@@
नगरों
checking
gs
अवि@@
संगठनों
tile
arts
allowing
णत
EMAIL
Ep@@
सृजन
Write
यकों
rely
you@@
oo
बोलते
जल-@@
layer
दबाएँ
साय@@
eous
Having
progressive
ticism
tri
resulting
कटौती
Yadav
Specify
का-@@
voting
enjoyed
1956
कांफ
खींच@@
टते
चावल
भेजना
castes
कालेज
अनुशासन
ashes
Red@@
Books
Machine
onto
दुरुपयोग
eli
discharge
Using
recognise
risks
DM@@
contractor
दरअसल
fri@@
औसतन
supports
गोपित
तावादी
है.यह
nationalism
युवाओं
alli
-ऊण
सला@@
अनुयायी
tle
law@@
marketing
44@@
tooth
tment
रयोजन
headed
अहसास
उन@@
bag
जरा
Cy@@
everyday
Vaish@@
speeches
Bay
चाहूँगा
activate
thin@@
tie
A-M
दकोश
लेग
controversy
sing@@
Profile
Na
clock
कैबिनेट
बढने
Amar@@
Ann@@
परिपूर
घुमा@@
exposed
थोडा
Sik@@
रूपरेखा
राई
phenomenon
टायिक
नीले
anic
adh@@
षड
considering
नेश
िए
Communist
रेखा@@
Zस
FILE
संभोग
besides
हाइड
suggests
organic
household
TRUE
ech@@
breath
axis
णु@@
फिट
co
naturally
permits
Place
finish
fruit
elder
पिया
arrive
Gor@@
attach
सेंटर
याव@@
hood
Hindustani
Lim@@
Dutt
talks
lesser
Hitler
बेच
ultimately
emphasis
रूचि
settlement
रजाति
अपितु
Five
proj@@
Did
ж@@
ress
पुरा@@
aud@@
incident
legislature
अनुस
UPS
Noise
Narayan
Families
फेंक
loose
denied
वाट
Parliamentary
Notes
Mul@@
paintings
-ट
बनते
भेज@@
काया
Thomas
dra
साम@@
sees
-to-@@
umped
ऊँ@@
mahal
rela@@
alia
रचनाएं
0845
icks
habit
migr@@
experts
Family
dish
wouldn
Reading
kilograms
Italy
ost@@
इसमे
86
शराब
कट@@
tured
rename
volumes
कोल
तलवार
केशन
grow@@
Says
short@@
समुदायों
पहुंचा@@
आपसी
Medical
pack@@
mistake
आसमान
emotional
गाय
अंड@@
Regions
parameters
कहावत
यहूदियों
eating
A.
pitch
नार@@
संभा@@
Offline
विंग
Sou@@
pal
fellow
आइकन
dar
̃
कात
blow
गिनी
पोत
टेडियम
जी-@@
widely
Fire
Nautilus
लेज
institution
Singapore
अलंकरण
crowd
फॉन
chair
संवर
Airlines
tested
secular
Anglo-@@
considerably
cultiv@@
२६@@
moves
Header
approximately
Hand@@
Reset
Rah@@
लैंगिक
cave-temples
सीट
serving
advantages
tiv@@
1914
तिरू@@
een
संवत
eable
chemicals
minim@@
टोन
sin@@
hin@@
तितली
kal@@
जिज
रुपये
Drive
talked
Commissioner
dition
सह
sorrow
टेंट
ambi@@
गिल
१.@@
धे@@
बहने
foot@@
Attach
दावों
Peter
ेद
score
Money
भगृह
consult
बायाँ
primarily
leg
सेशन
Budget
Trust
अपराधों
कहानियां
यूनिकोडित
मश@@
nov@@
tax@@
href
exam@@
heritage
Anim@@
ification
वॉर
sof@@
keeper
आभासी
continuous
डेड
ck@@
ंगटन
Val@@
CR@@
Rajput
1986
ढूंढें
फोकस
stroke
कि.मी.
साड
साप
ताएँ
हालात
गुर
Fa@@
परियोजनाओं
author@@
desc@@
females
अवकाश
irrigation
उठाकर
ouse
झो@@
विध
विका@@
readers
elsewhere
जानें
ओन
mounted
कीपर
आयातित
पौ@@
हरेक
iya
draw@@
अवधारणा
activ@@
खनन
असामान
procedures
पारी
हुकूमत
dol@@
Golden
जीते
ort
alizing
मिलेंगे
anism
USB
ERROR
शाया
फैले
consistent
ईमानदारी
1965
आवा@@
5.
offices
viol@@
acity
explains
जैसाकि
GTK
insurance
grand@@
ईए
79@@
fingers
need@@
रासायनिक
Respon@@
संया
लंबवत
Small
घटनाएं
imposed
servers
efully
relationships
preferred
घंटों
Down
मानवता
बाएँ
shr@@
कोमल
treat
CC
जादू
uli
उपनिषद
२००१
चतुष
विहार
PDF
Incapacity
Ki
nav@@
agreements
Hun@@
courses
inations
greg@@
कुन
tioning
सावरकर
Abdullah
iti@@
चरम
Kapoor
gro@@
distant
अभिनय
बायें
Tool
Ven@@
वयित
20th
मॅ@@
aker
patience
orous
Four
फाय@@
Again
मेटा@@
बानी
cheap
1927
नेट@@
Master
Kon@@
habits
alcohol
continent
जैविक
पसंख
असफलता
ume
Think
bowling
ha-@@
चाह
सलाहकार
मिथ
लादेश
owed
agu@@
दिख
दिग
studying
जंगल
Altern@@
Quit
Syn@@
gained
correc@@
चौधरी
ept
यवर
यतीत
गणतंत
suff@@
लेखकों
Palestinians
भू-@@
टास
plains
Bud@@
लोहे
4,000
Disk
excited
ld
fashion
blocked
सास
अवलोकन
याचिका
Off@@
रीति
tification
investigation
राना
चस
उपहार
register
uous
जिक
सपनों
शऋ-ऊण
Sc@@
saints
resistance
ein
modify
यवा@@
inn@@
कानपुर
Prince
TER
192@@
पहने
सुना@@
टैं@@
Goes
Common
atures
Pandavas
festivals
oning
साधना
conv@@
लाईन
Mountains
bit@@
VLC
तले
Ravana
shoulders
fiel@@
sections
Script
यिकी
चालित
सौंप
यूंकि
बताये
दिल@@
thumb
programming
टेलीफ
भेजी
पुनरीक
Preparing
dignity
नारी
crystal
govern@@
tives
रोजन
sentences
संहार
Richard
logged
धाराओं
Planning
Bol@@
ॉलर
Legislature
D.
१९३@@
affection
distinct
रियन
Jerusalem
matching
cutting
Stage
खाती
udi
claimed
interpretation
मॉनिटर
Sync
und@@
१९८०
serial
संचालित
tism
ghts
Sessions
लोकतांत
वीज
कॉम
voc@@
Kul@@
eling
Raja
sely
ON
intelligent
ूद
शैल
PR@@
villagers
बंग
discussions
losing
transferred
समूचे
पहुँ@@
मुत
मुझ
राख
मुमताज
रतिनिधियों
advised
declaration
Configuration
arranged
नकर
पुरा
काँग
२२
कैरियर
symbols
lat@@
माँ@@
राहत
real@@
Sardar
tragedy
जीवाणु
छन
Scheme
करूंगा
Secre@@
ensuring
clos@@
190@@
Engineering
रणी
inder
हटा@@
Unfortunately
cow
विमर
eo
ep
receiving
Envelope
यान@@
ested
बेगम
सिनेमा
िये
आयुक
जलि
black@@
ston
समू@@
explo@@
वाहक
Trade
डें
तालाप
coat
आदि@@
उठाना
effectively
rich@@
weapon
गाँधी
साद
विवेक
Style
यू.@@
Everyone
Speci@@
दोपहर
78@@
दराज
दबाएं
निकलता
constantly
मोटा
worried
एलि@@
eman
outlook
Ric@@
ओक
घृणा
निदान
forever
घोर
miracle
Pil@@
जब@@
रीडर
66@@
Keys
७०
deer
gap
cali@@
मकता
२४
vedas
in-law
पतियों
Oper@@
ald
kha@@
Puranas
sin
kan@@
incomplete
rolled
demanded
ola
recur@@
Prize
फॉण
condi@@
succ@@
रुति
inning
bread
एगी
ऑपरेशन
nearby
िगरेशन
उदय
रिटी
९९
wearing
CP
unfair
or-@@
technique
अनुपलब
Chang@@
Sen
हू
Bul@@
जमा@@
वाने
Masjid
symbolic
Love
driven
हिमाचल
Reader
Maur@@
Islamists
politician
wooden
singer
endor@@
माइकल
locks
जुडे
eline
watched
समायोजित
वदेशी
सूचकांक
जूँ
समीप
machines
indicated
recovery
ems
गंध
Syria
लाएँ
लगाव
excess
Amar
lips
suppl@@
डाले
विलंब
ill-@@
mandapas
टिकी
fif@@
रुरतों
prisoner
Victoria
जोरदार
टरपंथी
weigh@@
ठि@@
examination
geographical
carries
ंगो
post@@
Toggle
Capital
buil@@
visual
रिहा
संतुलित
lakhs
earnings
भूमि@@
सहन
Religious
आवरण
restrictions
निराशा
-time
du
sheet
यूटी@@
रसारित
फलों
edly
निकी
टकराव
pointer
कियां
borders
Contacts
titled
महावीर
paint
query
रना
workspace
गठित
iliation
worthy
Info
Southern
शासकों
Columbia
ty-@@
tious
umin@@
arise
देखरेख
pt
rede
abh@@
ate@@
atis@@
साइकिल
न-भिन
जाग@@
liberation
महिला@@
citizenship
Nobel
leaflets
Drag
uck
ऐं
सीमेंट
involving
ов@@
तिमान
1958
frag@@
मीकि
फीस
Bac@@
बॉलीवुड
तपस
ille
ली-@@
Question
फतेहपुर
yam
mythology
लघु@@
गृ@@
तेन
implemented
faulty
meal
hunger
रतिद
arrows
pressing
रौपदी
divisions
az
चम@@
वालं
संयोग
Nig@@
по@@
रिट
चल@@
पूंजी@@
possession
विकृत
ax@@
ताहिक
लु
मजदूरों
Kum@@
pled
aside
observe
रेम@@
रतिबद
मग@@
जीर
pas@@
produces
San
rog@@
schedule
wore
I.@@
ओलम
nos@@
हमसे
सांकेतिक
terrible
नातक
addressed
quar@@
फे
circum@@
आघात
एकीकरण
ाव
berg
आगामी
5th
अनुपम
attachment
writable
relatively
Rep@@
cross-@@
सीमा@@
IV
Bluetooth
मीड
ond
buffer
awards
194@@
Swar@@
Ki@@
initiated
West@@
विशेषताएँ
Care
resem@@
grave
secretary
Ireland
applet
यथा@@
Korea
राण
rup@@
जिया
लीफ
एका@@
bowl
टाने
ket
गामी
ीसा
Ek@@
supplied
जेन
षय
उपयोगिता
ench
Moreover
examine
washing
Savarkar
saf@@
Answer
सते
डप
फंच
Vivekananda
टून
ceremony
बंगाली
peri@@
horses
कहलाते
emerge
रुरी
foun@@
bled
योगी
fox
Pas@@
अखबार
मिशनरी
मापदंड
Lib@@
हजरत
गली
Quality
aksh@@
निकाले
भंडारण
ound
abl@@
tou@@
aki
breeds
बहुत-से
Hyderabad
sales
gran@@
संभालने
sole
et-@@
Haj@@
exception
Wh@@
ISO
coffee
HA@@
mothers
kI
वना
निवे@@
judiciary
slight
pride
रियान
rub@@
oriented
curr@@
H.@@
रोण
1966
teachings
fire@@
deities
वाग
show@@
pr
desired
compositions
रतिरोध
rapid
rituals
mb@@
रीड
िंदगी
silver
षरता
ua
bol@@
satellite
पहे@@
Fo@@
sit@@
Ah@@
Gujarati
larvae
नाग
-पत
muslim
organizations
Mozilla
अनुसूचित
Editor
Tru@@
डि
पहुँचा
fun@@
wars
wara
minority
Ancient
Indeed
dom
idol
shoulder
फील
शीलता
Alpha
dge
deliver
पंथ
Computer
plus
Mahar@@
Ori@@
गया.@@
भाइयों
put@@
कमान
edy
टिया
लेबैक
contributed
किसे
इऋर
Hans
असं@@
seventh
कूट@@
favorite
viz
alla
Loading
tations
Vic@@
यापारियों
परिष
ety
consisting
tough
टोपी
दकोष
avoided
दिवसीय
Player
pursu@@
derived
Anand
AA
Shak@@
ner@@
purcha@@
Gen@@
Theme
captain
आकांक
prophet
२००३
guard
राजी
पिछड
Copying
driving
मौज
निराश
HOSTNAME
कास
फिलहाल
याप@@
lining
चाहा
सहारे
कोलंबिया
Rao
deals
yal@@
Ca@@
सिखाया
उनऋ-ऊण
originally
काटने
Hall
कहेंगे
columns
nickname
so-called
PC
repeat
महाराज
NUMBER
Pak@@
कम-से-कम
सू
Fer@@
मुय
lik@@
composition
ired
असुरक
arm@@
डित
cho@@
fighters
याह
RELEASE
insi@@
cha
recommendation
newly
prof@@
ando
शोधन
शियन
ankar
chose
~
अख
पती
Website
causing
hungry
negoti@@
Ras@@
१९५@@
पाय@@
अरबों
nationalist
सीरिया
Rat@@
dust
moments
Orissa
Initial
anand
बहुत-सी
esvara
fe
shifted
-e-@@
तारी
ताकतवर
इंजीनियरिंग
Padma
Cro@@
marks
water@@
यौहार
टेलिफोन
Suri
समतल
चेस
थता
विपणन
comfortable
दरासल
Arabian
तरे
Bangalore
alphabet
post-@@
Karachi
Gran@@
elaborate
explos@@
निकलती
damaged
जैसलमेर
s-
ographic
owing
Buil@@
Sah@@
Limited
Durga
आशा@@
पिछ@@
aim@@
abor@@
योति@@
eral
यूनानी
हाशिया
डू
ean
अंगों
निरपेक
नामा
Hospital
protocol
30-@@
बली
छिक
छिपे
Dou@@
oral
ashi@@
बिर@@
Super@@
कविताएं
नमक
min
mid
mit
ble@@
एच.@@
aking
Haw@@
simpl@@
Ger@@
reputation
ाहिर
ed-@@
अठारह
clear@@
कोनों
aims
advise
worlds
0,000
इंटर
पुरम
कोप
headquarters
mit@@
varieties
पोरेशन
thetic
ever@@
boat
गरीबों
००००
इंडियाना
handling
eigh@@
ал@@
Ir@@
बचाया
devoted
typical
resp@@
आर.@@
Chi@@
निधन
0000
Moscow
दीं
सहयोगियों
मौखिक
उदार
filename
पालक
राकार
suicide
एव@@
person@@
aster
अनुभूति
उठाते
भरती
Bad
depression
winning
संभावनाएं
hypo@@
गा.@@
versions
बट@@
py@@
गोपनीय
civilisation
IM
तेजित
reduction
entary
पोल
यवश
18th
ीकरण
etic
entering
Field
aves
atively
कभार
मिन@@
Brahm@@
हियों
Rabindranath
PO
आपातकाल
जौ@@
recognition
passion
uated
wastes
tone
सराहना
77@@
ees
तह@@
सबक
TB
गिरने
थे-
increasingly
14.@@
Gaza
Head
भीम@@
रदेशों
भूभाग
mess@@
ар@@
dil@@
राहम
fault
विनिमय
ंची
1926
taste
lighting
pass@@
ъ@@
बनारस
यूँ
cel@@
nominated
republic
Indiana
छाप
poly@@
सिगरेट
Daniel
Ref@@
मंगल
सरकारें
dro@@
Rate
चारी
categories
सौदा
keyring
drum
recognize
ко@@
गुजराती
hills
वसल
वसा
obe@@
assi@@
लंका
अऑफ
नोबेल
io
टाफ
टाई
digital
Tam@@
करू@@
jus@@
EXTENSIONNAME
डालते
fifteen
पृ@@
पूछे
आवृत
praise
ren
हरी@@
shelter
आरएसएस
TWES
Asi@@
खनिज
हैदराबाद
ईल
तल@@
बेन
ano
removal
generate
खियों
Hem@@
н
Recent
विज@@
harassment
लपुर
anced
Canton
prompt
दादी
Payments
आंध
आंग
decay
ऐच
econom@@
विशेषग
GConf
1952
Enables
fir@@
sport
आया@@
लेगी
factories
circular
ни@@
symbol@@
yal
tongue
Relations
Fr@@
Bihari
Cursor
हिला
मुहा@@
onic
3rd
जीवनी
org@@
खामोश
जता@@
वऋ-ऊण
lion
700
judgement
अवरोधित
Reference
stu@@
जऋ
२७
Still
tes@@
thes@@
necessarily
रत@@
pot
medicines
filed
दौरे
-in
मैक@@
В@@
cing
वैयक
बांस
tir@@
touched
harmony
Scotland
करार
muslims
stress
bly
sal
locally
teen
भाषाएं
publishing
198@@
nu@@
सजीव
Apply
नासा
expand
यजुर
CE@@
eri@@
recru@@
डाइ@@
aling
Bre@@
पौंड
singing
altern@@
conver@@
handed
Alliance
20-@@
inding
QU@@
Grade
टील
आयताकार
बनेगा
surrounding
नाराज
Hills
aja
Flash
casting
tia
reminder
samples
तना
रांतों
ignore
झगड
LAN
टती
recover
Between
लंब@@
णी@@
विधिक
pline
replied
wives
नागर
glasses
irrit@@
शैव
enforcement
एकीकृत
taxes
PS
सवालों
ert
लाहु
pilgrimage
Aer@@
Lat@@
लाएं
ome@@
Ahmedabad
reject
णीय
लिं@@
feels
आशय
sk
बजाएँ
teenth
Leave
रधानमन
Tibet
Archive
चाहिए.@@
gen
महीन
बढे
घटित
उपाध
वाहनों
storeyed
डायरेक
पंथी
bath
Sign
मानसून
1925
KE@@
porter
टेलीविजन
टॉक
Bhim@@
attend
गांधीजी
divide
निकालना
आभास
panels
qualified
attraction
मुआ@@
a-
eva
Santiniketan
बीमा
actors
मधुर
संभावनाओं
हरियाणा
func@@
vessels
Organ@@
अंतरजाल
सातवीं
illing
इंक
partly
bed@@
ained
evident
रिल
पितृवंश
सियासी
infl@@
stup@@
recommend
sorts
Kanpur
ook
cell@@
लिखकर
बीते
ञानी
चय@@
वनी
खेला
Med@@
झे
CS@@
िला
TIME
अधिकार@@
३३
backward
बज@@
साज
hazards
Active
multi-@@
the-@@
तूप
लज
Subject
मेहरा@@
भावनात
ई-मेल
खोज@@
Include
अहमदाबाद
innocent
jury
Getting
Va@@
यंग
Atlantic
furn@@
comprehensive
tennis
Ker@@
महिलओं
जिप
avas
amendment
lav@@
DEVICE
ओब
Shankar
रोफेसर
din@@
Vertical
ऋस
सिल@@
Kathmandu
वाकांक
Broad@@
Mary
offender
अलैहि
ushing
०००
metres
Han@@
regulations
scr@@
औज
asser@@
रेषक
पैन
रकरण
Ramayan
कैलेंडर
XDMCP
Learn
applicable
निरं@@
rical
militant
पीढी
पसन
सचे@@
Whatever
AaOr
१४@@
accessible
पहचाना
Geography
1969
आधार@@
सना
Soul
पहलुओं
nur@@
investigate
customers
shapes
बहिष
ID@@
बढऋ@@
बाक
Aw@@
rolling
ककर
kn@@
differ
Vin@@
surprised
broad@@
printers
Uttar@@
णात
ques@@
phones
विलक
circles
अखबारों
acious
खिलाफत
इंडि@@
मोक
Death
नड
coalition
miss
inity
urgent
धम
aws
Jos@@
St.
ऐंड
tap@@
mill
Changes
thank
राफी
eption
PE@@
pad
यारह
handic@@
contrary
joining
Long
native
tified
routine
अभिप
मदिन
anjali
लिंग@@
हरम
समापन
टें@@
यादेश
arrival
peaceful
over-@@
भयभीत
घात
यायपूर
Activate
interrupted
crash
candidates
38@@
hanging
वें@@
गतिशील
popul@@
छुक
chain
MA
पदक
Sky
शां@@
virus
कुश
flowing
obli@@
दल@@
रियाई
tomorrow
ॅक
St
रों@@
1910
खासी
Index
यमी
Chit@@
D.@@
मेहराब
पैटर
Session
compos@@
frequent
मापन
नाएँ
outs
perspective
5000
वाय@@
बैंड
Ol@@
implement
महाविद
anth@@
concerns
communist
quadrangle
नरी
nursing
Saddam
मिली@@
सोना
tribe
कुमार@@
जना
नौकर@@
दीवारें
दायी
Cat@@
Within
जातियां
मंजिल
trusted
अपारदर
ret@@
ऊंगा
फिक
robots
81-@@
सापेक
पहचा@@
राइड
राइल
upload
Hindustan
modules
proportion
operator
audi@@
vulnerable
Wage
पूरक
agenda
dynamic
sul@@
Nation
kill@@
template
Back@@
transportation
समग
भूमिगत
feeds
itarian
वामित
projected
इम
kg
आविष
wholly
Selected
Afghan
tedly
Person
Tun@@
दातों
रूपां@@
usion
ament
साठ
रियो
०-@@
गुल
सामा@@
ential
योधन
solvent
radiation
expe@@
Exam@@
कीरिंग
धिकार
ple@@
camp
Amb@@
नियाँ
जीवन-@@
Rana
sy
inserted
hopes
लेख@@
san@@
सूचनाएं
banned
eve
reproduction
Undo
Bun@@
ढांचा
नाव
evict
R.@@
वेष
रिवाज
जिनको
पाकर
tala
१९०@@
Coc@@
रदूषक
employers
सामर
paragraph
linga
कथन
यूरोपियन
नमस
serv@@
पाएं
लीला
rol@@
छाती
रेसि@@
परा
Procedure
tig@@
Main@@
satisfaction
ंटी
success@@
fees
घण
associations
लुप
previously
मैनेजर
श-@@
dd@@
Bachan
esty
ease
draft
constituency
तुएं
aga
oda
accompanied
visa
07
pause
twenty-@@
remo@@
मरण@@
rated
निवासियों
गवाह
brave
आफ@@
उमर
1934
innings
Practice
लड@@
ker@@
BS
grammar
chest
Christianity
grows
themes
ana@@
मेडिकल
जरी
occupied
7,@@
गुजर
बैकेंड
किराये
continuing
लूकोज
टीट
जाय@@
injured
सवारी
Dha@@
Day@@
Private
G.
Provid@@
मौर
cast@@
पैरामीटर
विवादों
conversion
penet@@
Additional
Sr@@
वैट
bars
बरस
राउन
motor
अनुबंध
apar@@
कमज
कमल
heating
टेल
कॉट
खेत
शरा@@
विशा@@
child@@
गिरा
नकारात
थू@@
Goo@@
test@@
बदतर
लिप@@
techniques
जन-@@
shares
महीना
बीन
नैतिकता
तावों
Vall@@
मंजूरी
ideology
ताप@@
राब
हुक
1917
forgotten
з
236
unsupported
Dwar@@
err@@
Desert
no-@@
Buddhism
lice
seau
wake
लट
Notification
Nepali
аи
translate
talent
समावेश
varies
18-@@
stag@@
मानव@@
animation
ported
माया
यन@@
Properties
confirmation
19th
उतऋ-ऊण
रृ@@
conclusion
दोहराया
जीवंत
Upanishads
True
Saf@@
सेवक
aI
भैं@@
fam@@
भूकंप
परिपक
mature
walked
mechanism
यमन
aer@@
Cambridge
plates
balanced
reset
शाता
दिशाओं
occasionally
credits
Latin
reflected
shah
offences
बीकानेर
दया
सके@@
God@@
Stone
conspiracy
dated
रज@@
drums
Major
Auth@@
बदलव
Hussein
Nickname
Scale
Modi@@
बेर
2.0
AD@@
अवज
राधिकार
urg@@
scre@@
लाओं
conn@@
रीस
currency
Word
Extension
जबतक
Sto@@
polluted
Appl@@
जाएंगी
thereby
सौभाग
घटकर
चौथी
writes
रभु
सटीक
Bagh
happ@@
meningitis
ंचा
इंटरफेस
गुरू
ओड
बाइ@@
उठे
uniform
ऋन
ISO-8859-@@
liberal
ऊँची
ढक
esa
एयर
arrangement
acres
admit
रीन@@
02
propaganda
tall
vimanas
path@@
पोलि@@
bility
dentist
depend@@
distributed
दाद
strategic
apparently
Mari@@
accidents
रियाशील
कंत
automatic
savings
बहरहाल
eld
subsequent
tum@@
बुढ
trip
ph
eded
किरण
ough@@
विला@@
बॉम
बाण
डं@@
enters
वांछित
canal
userinput
Bhe@@
Starting
disorder
ईं@@
literally
Kashmiri
Cali@@
whe@@
ढूँढ@@
पूछने
dying
tran@@
accordance
namely
comparison
Karna
लिका
ern@@
नॉ
ऑफलाइन
forc@@
sty
verdict
धागे
fru@@
ठण
impression
मिटा@@
pad@@
रहा@@
पाश
Sak@@
pers
Kuran
osphere
encryption
moderate
रें
sharp
giant
ठापित
उसमे
FS
Director
bloo@@
qualification
दिलाने
धौ@@
Stadium
बदलकर
diam@@
मलेरिया
Menu
clicking
plastic
Band@@
Applications
hind
gir@@
passes
वैल
Gop@@
ञता
किर
बाइंडिंग
जळी
Generally
गैमीट
Tra@@
USER
occupation
remedy
tribes
Championships
सिग
सिफ
rat@@
gun
Jail
inter-@@
Nor
शपथ
ओवर@@
ym@@
cane
Sank@@
fal@@
​
ँग
asks
Kas@@
renamed
Sindhu
ंचे
overall
ंब
पॉपअप
meditation
perf@@
Bottom
capit@@
chang@@
phere
बदलता
1500
utter
reducing
D-@@
sectors
नुमा
Kbps
ter-@@
weekly
lock@@
विलोपित
specifically
grou@@
Priority
नारा
मरा@@
Judge
कथा@@
समाचारपत
Call
ैंट
राउजर
cro@@
soldier
मुखिया
deleting
kap@@
कॊ
discrimination
Horizontal
sized
रतिरक
अवहेलना
टाल
टाक
oon
delta
पूल
वैधानिक
सिनसिनाटी
विवेकानन
Naren
अजनबी
कूड
scripts
इलाके
attributes
respected
anded
धुंध
thor@@
यूयार
by@@
license
essi@@
दायें
185@@
flour@@
propag@@
चैं@@
alleg@@
long-@@
लियो@@
blame
बाजू
समय@@
hoo@@
Kho@@
सहा@@
चलाते
मह
thick
Jyo@@
1954
hospitals
arbitration
authors
kal
Shah@@
rope
lasts
old@@
Canadian
utili@@
underground
compatible
pped
पतली
डाटाबेस
थि
लां@@
Toolbar
N-Z
wind@@
enced
सूचनाओं
constitu@@
bamboo
दाल
डऋए
आजीवन
messenger
रभावों
घबरा@@
snow
solutions
disappeared
संगणक
wireless
definite
गैसों
friendship
Sikh
अभिगम
रिफ
५००
wala
रही@@
टिल
Korean
Hum@@
करी@@
च-@@
उप-@@
thin
गुरुदेव
Agriculture
cos@@
रयोगात
Give
poetic
Store
Horse
Fran@@
lit
pillar
nal
Das@@
ride
शेयरों
कठ@@
shed
offset
Blue
खेले
restricted
contin@@
णव
ansh
DL@@
hole
gies
fet@@
टीं
tremendous
विं@@
H.
Introduction
Histor@@
तरिक
Dhan@@
शतक
Poly@@
incorrect
Hir@@
रजा@@
रवाना
वैष
quit@@
conflicts
ity@@
osity
Work@@
Setup
pulled
षिण@@
enh@@
cuisine
diverse
house@@
kr@@
individ@@
१५८@@
view@@
गरी
पारि@@
integrity
Game
कबूल
disputes
fluoride
लगाई
टांगों
vil@@
past@@
थें
खासा
Appe@@
ताला@@
ener@@
Aryan
PATH
uru
sorry
ester
SSH
Egyptian
हिच@@
meets
लैग
बताई
राचल
रॉस
Economic
टिकल
vagina
उँ@@
ऊँ
लिपियों
allocate
धोखा
aring
बौ@@
chpad
तीकरण
Database
बनीं
गाहों
पहेली
केटरिंग
X-@@
समुचित
solved
petition
ar-@@
surgery
Nat@@
pression
Canc@@
रकारी
जाम
Mountain
Several
designs
निबटने
बेनेङिट
reign
भट@@
हैसियत
ंडे@@
टैंडर
बनावट
तने
दुर@@
किक
eg
e-
हिमा@@
Ahmad
उठ@@
bugs
धमकी
l-@@
transformation
नियोजन
cloud
शुष
nuisance
-1@@
ified
डेमॉन
quantities
Sweden
males
critic@@
integration
Regi@@
जगा@@
ले-@@
सादा
टीकरण
एकजुट
variations
झी
था-@@
random
cultivation
शाली
धावस
obj@@
strongly
1900
Compensation
Vy@@
अथॅारिटी
लिनिक
four-@@
stand@@
appa
mid-@@
दूषित
मसौदा
participate
pregnancy
Instant
ett@@
improving
tory
Ara@@
tu
२०१०
रैप
ईयों
याति
भूरे
ंडों
desirable
रांसीसी
षणिक
विजेता
Proc@@
1959
fifty
दफ
Through
beliefs
cows
dw@@
साइटों
advoc@@
Politics
hostile
gram
WE@@
रकला
Must
Clinton
संतानों
sted
एग
stimul@@
गोरखपुर
cons@@
180
बिता@@
Kos@@
रक@@
Europeans
पेनी
२८
पहुंच@@
scriptures
Chris
सुधार@@
Checking
कीड
वैसी
सुब
उतर@@
मैनिंजाइटिस
pray
सीख@@
scholar
hero
गैलेक
poses
नगरी
labels
detect
Camp@@
शोधकर
laying
Zone
Sunni
stairs
diff@@
odd
UNICODE
gathered
ion@@
Apple
rough
कृषीय
Varma
monument
सशक
Ahmed
पूछना
विनिर
victim
prisoners
गौरव
देसी
विशेषाधिकार
Encryption
36@@
ेता
B.
belonged
andra
कान@@
अद@@
बढिया
directories
acre
कामकाज
abi
buses
textile
विट
pronounced
bones
सहाय
psych@@
हु
खिस@@
निकलकर
sex@@
वीणा
टेली@@
screenshot
दानों
रेड@@
मनों
फुट
Everything
पोप
Prophet
throne
china
qualifications
cular
मामलं
substances
बुल@@
विशेषताएं
shortage
Sahib
stomach
P.
कराची
लकसभा
ema
beetles
57@@
participation
Ali@@
Maharaja
actively
सभा@@
n-@@
liver
pack
झाड
वल@@
गह@@
wave
vas@@
आकस
बैल
acle
सी-@@
earn
oma
proposals
खींचने
गोपाल
खलन
Wi@@
लौटे
धनुष
governance
छुटकारा
नेह
honor
cred@@
सती
देखती
Mamata
persu@@
enquiry
णतः
रचना@@
आनुवंशिकता
clouds
गिन
खिसकाएँ
treating
षाएं
cement
backs
निज
Valmiki
पहि@@
paste
ention
सिंधु
vara
chro@@
wash
मतों
थियो@@
ext@@
सारणी
गला
cus@@
चारे
len
Commonwealth
सुपर@@
परमात
बाबा
रवाहित
हिंसक
सिपाही
Cut
किम
दावली
दाएँ
Defence
कारियों
Learning
इंटर@@
legacy
Khand@@
शनी
बहाल
protest
जला
ologist
Haryana
लका@@
तकरीबन
TM@@
रदूषित
margin
alignment
किनारों
freely
insert
lers
नैशनल
stre@@
सशस
spir@@
Count
१९४@@
jew@@
Inf@@
Naidu
bud@@
Sing@@
logic
लोर
नही@@
Thir@@
launching
विकिरण
Possible
ऋत
concentrate
चो
div@@
अमेरि@@
मुल@@
command@@
by-@@
prescribed
राहकों
esp@@
1953
जंग@@
दय
टाया
experiences
MIDI
-ब
perfectly
मदर
GE@@
Despite
goals
एजेंसी
Od@@
बारिश
seed
निशाना
ZZ@@
initiative
butterfly
GD@@
एर
पच
महिल
colonial
माम@@
हमास
Recei@@
युनि@@
भुज
immigration
डऋई
sac@@
सांसद
२९
rupees
incarnation
Rever@@
dialect
oasis
रूण
तटीय
कारवां
Pass
घी
लम@@
पैराग
पनी
Links
school@@
रूपांतरण
Range
गऋ
jihad
कोक
ction
Basic
बाढ
pity
Culture
smell
भाँति
tears
residence
कुल@@
देशबन
convicted
GDP
marry
ओवर
पथ@@
ठेकेदार
lucky
ounds
lab
icians
devotee
Ghaz@@
Bon@@
मोल
grat@@
ер@@
Crisis
Ga@@
वैद
lawyers
retri@@
राँ@@
playlist
बाएं
skill
ch-@@
ADDRESS
Hazrat
1990s
bert
eter@@
Description
tyr@@
सेहत
समितियां
Actually
Ek
imperialist
तिया
lined
जिलों
२००४
जिंदा
निशा@@
executed
वेरी
1944
जांच@@
काष
Content
गायक
रासंगिक
युवक
होतीं
traits
lor@@
guru
Abraham
महमूद
backend
अनजान
Beg@@
fic
Lak@@
यकालित
Facebook
azi
retrieve
emen
गने
बि
NA
mail@@
गां@@
15th
निकलते
कुम
PM
tible
मशहूर
नवा@@
convenient
तेदार
kitchen
हाथियों
सीय
pret@@
राजीव
चिंतन
conventional
uting
None
anting
sketch
वितीयक
बैठकर
8000
पदावनत
सरा@@
deeper
दबाने
युधिष
conce@@
olog@@
डेमोक
alisation
यवसायिक
ka@@
फौरन
tify
EC@@
ह-@@
boundary
smart
prevented
Pow@@
झाँ@@
पहचानने
Mosque
iction
ron
band@@
shi
transform
पाठकों
40,000
हाइट
ief
मूत
centi@@
Nov@@
Bikaner
undertaken
excessive
यूक
SA@@
गैर-सरकारी
कराते
alling
WYSWYG
02@@
manufacturers
रायद
कुप
युवकों
दां@@
Harry
KEY
ligh@@
केत
Bharati
residents
संकीर
अनदेखी
commitment
चौथाई
significantly
रेता
dangers
strings
Sap@@
describes
shan
Rol@@
मनिरपेक
appoint
सहेज
Lam@@
uted
utes
काउ@@
crazy
रूपी
रांगण
chamber
फूट
लिखाई
उजागर
province
я@@
चेष
cript
grid
बदली
bunch
tray
Universal
विवेकपूर
दूतावास
रस@@
मनोवैज
Something
pric@@
LEA
identi@@
Binding
Identi@@
वतीय
separation
itting
नवी@@
Until
ंगि@@
Cas@@
साकार
psychological
92
ऊँगा
brilliant
revealed
तित@@
refuse
चौथे
church
जूते
ug
oration
hibition
350
oxide
Multi@@
album
अंटार
टोरिया
noble
Orca
FILENAME
साया
झलक
partners
आलू
मणि@@
crucial
preparation
Dig@@
personally
Laxman
Daily
surrender
kilometers
भन
buff@@
hang@@
ashed
विशेषताओं
धरण
सूखे
Proxy
दाताओं
57
permitted
existed
शाब
apati
अनुमतियाँ
नाजुक
तरी@@
sari
तर-पश
publicity
itary
88@@
तद@@
नती
Official
chances
कोस
कोन
foo@@
लिया@@
फेस
cles
AC@@
Chow@@
push
quantity
नां@@
वालि@@
maintaining
Welcome
फॅार
guar@@
बताती
A-@@
सरलता
cks
Ta@@
धनी
oxygen
VM
इला@@
Deal
club
सघन
Sul@@
restored
certificates
फसलों
mism
राइकर
laun@@
नशा
ऑल
20,000
Rest@@
microphone
chromosome
tips
overcome
पीना
Forest
candidate
विच@@
earthquake
agent
mon
Yeah
premium
pregnant
लायी
तालि@@
फाल
Nas@@
विण
pil@@
hop@@
borne
Ashok
ोसी
bun@@
सामंजस
glory
dram@@
deleg@@
posi@@
itate
रीयता
झटपट
Mr@@
DATE
arh
सला
गेहूं
tras
nak@@
शांतिपूर
समाधि
Chicago
bod@@
corporate
ader
aza
Tourism
Ma
на
receipt
यूनल
एयरलाइंस
pairs
double-@@
Card
Freedom
eleven
Connecting
gang@@
संध
Pipes
Fuel
सिज
ul-@@
रियाँ
टाइन
पडऋ@@
introduce
challenged
challenges
Requ@@
tropical
01@@
amy
Opening
cave
गीर
ारो@@
कथित
locale
revol@@
farm
kes
tourists
दांडिक
चलाएं
tra@@
मासिक
संभाल
ored
ताब
suspect
DEVICENAME
imag@@
ü@@
FOR
stic
chart
भागीदारी
रॉम
पैदावार
IMAP
estate
ऊष
ales
Rules
doc@@
alleged
ense
पॉप
Sunday
UTF-8
मोनो@@
heredity
Sur
griva
कोटि
structural
overwrite
ीस
opinions
dental
Column
ठहरा@@
maj@@
वगैरह
दिनांक
authenticate
nurse
Kes@@
एकाधिक
eping
Mark@@
engage
Review
edition
सहूलियत
replacement
aks
Messages
उपनगरीय
ev
viable
सोचें
संगी@@
सौं@@
fa
ox@@
abha
evid@@
ll@@
consultation
ед@@
विहिप
Him@@
साउथ
कद
fate
विदेशों
thumbn@@
दिख@@
LimeSurvey
pura
gesture
माय@@
pump
Waiting
वायरस
Attendance
compan@@
omens
रीनहाउस
contempt
Adobe
vation
laugh
अनुम@@
signing
glucose
treaty
Taking
यी@@
अंडों
thirty
घटा
एवम
थशास
kil@@
favor
कामयाब
Cho@@
guided
Н@@
ICC
VE@@
खींचें
Chin@@
चांद
fee
regi@@
quis@@
करेंगी
रेडिंग
निब@@
activated
logical
वासों
कलन
Brazil
बराबरी
Shotwell
फेर
Advice
खतरों
Autom@@
गीकृत
करतीं
counted
warfare
south-@@
टांक
Cave
contribute
सीजन
नखलिस
boxes
उठी
सहे@@
विधि@@
Cel@@
Lower
योद
दण
लहर
orientation
equivalent
yo
ye
essing
दशरथ
ऊँचा
जीवनकाल
Was
loom
arg@@
crossed
Low
corresponding
crick@@
रेषण
Thackeray
Host
Ris@@
रतिज
performing
Den@@
unlock
10-@@
माड
कंपनियां
PAR@@
Saving
declare
gar
जहा@@
Cross
दाई
Intelligence
बहु
comfort
पिघ@@
वायर@@
atur@@
goddess
Rajas@@
बीसी@@
VI@@
कीन
tery
लाइनों
endranath
sympathy
टु
गमन
लुक
पैकेजों
कसम
89
revolt
मेला
बाब
जीवाणुओं
posed
oli
Mam@@
नीज
sao
बिताने
ऊतक
etry
submit
पठन
तुतया
loans
लिज
gle
lam
पना@@
Aryans
चलन
कानों
विहीन
whol@@
परो@@
उतार
तुक
चाँद
आखिरकार
एट
aining
cen@@
Jud@@
पड@@
pit@@
temper@@
calm
वीडियॊ
160
upgrad@@
तप
विषयवस
Awards
staying
critics
Revenue
ulations
multipl@@
लापता
favourable
Viceroy
रूपित
खेलों
रहो
नौसेना
योहार
खासतौर
Bil@@
रोसॉफ
बनर
bacter@@
Hz
Dal
वानी
clone
eas@@
Joseph
achievement
नपुर
Ctrl
recogn@@
1.0
safely
धृतराष
कुँजी
रकारों
रताप
ऋन@@
जँाच
atar
Childcare
कानी
रितानी
जातीं
attendance
Cache
भारित
Hai
uga
निरा@@
gases
open@@
Islam@@
ज-@@
Darwin
सुनाया
bre
indicates
जमावट
निया@@
wheel
Tomboy
yav@@
Package
implications
विचार-विमर
duced
GNU
inquiry
embedded
अधिकृत
PID
Normal
रॉडबैंड
TH
hits
ंट@@
UN
मनोनीत
डाली
auti@@
config
कठिनाइयों
मोतीलाल
Others
डीलर
dear
asw@@
ет@@
पहचानकर
Cli@@
W.
मैदानों
पंखों
lou@@
malaria
Retirement
पहु@@
आज@@
राह@@
यांग
onom@@
torate
सुनह@@
शंज
astr@@
situations
सरोवर
Nay@@
सृ@@
लिए@@
मशी@@
चालीस
लभाचार
sur
मछलियों
लेखा
Item
rier
Row
superior
अनोखा
Chak@@
ववत
pleas@@
incredible
disaster
gle@@
Bos@@
hen@@
upta
तांत
दिशा@@
ser
insulin
blocks
दिव
-out
cm
Syed
alliance
smooth
यमय
पें@@
बीमारियों
Sex
License
ez
bhar@@
DNS
Shank@@
bang@@
Ly@@
ased
bel
कऋ
Pallava
homework
माउण
परशियन
Jun@@
डरों
रघु@@
खं@@
१९३६
ती-@@
Hom@@
rays
शुभ
tion-@@
बढावा
anticip@@
ताव@@
पूछ
लोहा
फेफड
Lag@@
डालता
रोकथाम
छायावादी
1987
enterprise
गोपुर
आँख
toolbar
mass@@
possibilities
alistic
visitors
तरू
मैट
ou
presentation
Block
86@@
efs
But@@
pH
वरी@@
गुनी
मेन@@
रिपब
Writing
sep@@
intention
iss@@
telec@@
छठी
ro-@@
predic@@
परिकल
सोचती
pocket
itated
Applet
MP3
scrip@@
मोटी
टोक
buried
शॉ@@
राने
वीकारें
cannabis
राउंड
arrange
habit@@
Vel@@
let@@
Stock
concrete
icious
spring
curious
Ear@@
रवैया
Pause
Loans
कसंगत
С@@
सॉ@@
stry
चोर
repl@@
ws
launcher
नाप
वाँ
clothing
रकाशक
shine
zi
chand
Bet@@
yat
डज
simil@@
पैट
DHCP
80@@
ओलंपिक
05
फायरफॉक
ord
semi-@@
Station
Pash@@
Terminal
Max
Partition
reserved
DU@@
Produc@@
वेदव
दुःख
लौटा
ंदर
Lar@@
prev@@
००@@
मनाने
sports
वियों
returns
afterwards
Spe@@
e.g
liter@@
well-known
7.
tam@@
consist
विवश
बैंकों
hindu
नाटकीय
बनायें
इंसुलिन
घायल
provincial
Alexander
ests
दायाँ
wari
deity
formula
लीटर
licen@@
Whenever
रदूषकों
अभियांत
bio@@
fted
hyper@@
floo@@
viewed
अबतक
विशुद
educ@@
compromise
ply
उपरांत
indul@@
aint
Gil@@
aliz@@
खेलगंमत
coordinate
लैश
bab@@
fathers
grams
electrical
tiz@@
converting
mas
पि
artists
बजाया
deemed
ाज
Alt
silly
deep@@
रदाता
आसन
ly-@@
तह
eph@@
unusual
profiles
nutri@@
spreading
rail@@
चप@@
ulink
राजमार
Um@@
bleeding
सोम
judgment
8th
वारी
expects
लौकिक
सकतीं
Thre@@
styles
dismis@@
cinema
बाईं
initially
hatred
Ke
idi@@
वीपसमूह
Paste
ARE
english
wil@@
searching
La
4.5
वीय
छुड
7944
संदिग
nic@@
विचारण
jit
12-@@
emotion
Van@@
बह
host@@
cool@@
short-@@
S-@@
maker
Meth@@
Brahmins
मेल@@
Replace
लंबित
देशन
भौ@@
हॉल
मांड
yard
Narendra
tissue
सीज
polic@@
amp
Rit@@
FFmpeg
Cast@@
grey
लीं
empowered
डाक@@
Tha@@
gallery
examined
Internal
कवयित
-help
VI
iously
ें@@
हरों
boundaries
sleeping
colleges
जरा@@
खैर
ंगें
मशीनरी
VHP
Israelis
1961-@@
यांत
लेआउट
Tro@@
Wireless
बसों
रयोग@@
stuck
football
ел@@
farmer
चलेगा
नीकरण
etc.
makers
SITE
तैनात
safegu@@
Drona
pipe
los@@
Eli@@
फायर
prize
hurt
आयरलैंड
convenience
ीड
हथि@@
professor
hibit
を@@
तेजक
mighty
dealer
disgu@@
politically
upto
महासभा
pac@@
agents
मदीना
ैक
पंथियों
Agreement
सदा@@
उपनाम
राजा@@
contrac@@
अविष
कतिपय
ange
रखेंगे
समायोजन
खाका
erce
Greater
hala
Wiki
अधिकाधिक
quota
quarters
कैन@@
eters
bee
६३@@
kumar
रतिनि@@
iss
tokens
assume
exploitation
Dutch
inhabitants
Standards
भारतवर
unexpected
कॉफी
मणों
Motilal
साग@@
pet
कृतिदेव
Mit@@
दिखते
Ji@@
बंधी
icit
ml
duction
बाधित
आलेख
Has@@
Sus@@
5,@@
lec@@
provider
हैरी
How@@
Parents
1909
orities
उठाए
ling@@
रहार
K.@@
ister
avi
आदिवासी
magazines
Rani
परमेश
monitoring
chers
resh
तंग
mask
Church
continu@@
holes
पडे
सलाम
fever
Jaisalmer
नाट
खरा@@
celebrate
Confl@@
धीमे
canceled
रचनाकार
Federation
dominated
popularity
१९९०
रतिभा@@
pain@@
टांगें
editing
Astr@@
comparable
रेखांकित
camp@@
pand@@
missionary
icted
confused
deposit
ठिर
confirm
returning
copper
रशा@@
Totem
enge
ached
PA@@
दाश
vely
unlikely
आनु@@
चौदह
week@@
eternal
ritual
solicitor
Mumtaz
corrupt
परक
coach
बँ@@
जता
मिता
लाभदायक
Yoga
icked
Fore@@
भाषणों
करणों
महासचिव
orial
Ghosh
ospace
4th
समाज@@
passport
96
feedback
Phil@@
पाठ@@
otic
refl@@
Upgrade
दूरसंचार
prospects
लास@@
हैंः
बैठी
tier
उनपर
ITY
पति@@
frequency
सिकंदर
हरिवंश
पुकारा
सॅ@@
Stan@@
lowest
मोज
Complete
cad@@
ared
el-@@
वैक
Pix@@
शिवाजी
throwing
it-@@
da@@
रवाल
colon@@
Bis@@
NT@@
stolen
peculiar
डर@@
याग@@
ult
ull
predict
Event
mining
Turn
Storage
grants
characteristics
pan
lions
tribute
भरते
organism
Deshbandhu
अँधेरे
yiel@@
Nic@@
Fir@@
काटें
after@@
कैलिफोर
छापें
heed
economical
akbar
inscription
scenario
Missing
devi
पदा@@
jud@@
stops
revolutionaries
TLS
फुल
ancing
हममें
Hard@@
ague
मचा@@
जना@@
सुंदरता
choices
bad@@
टलैंड
Bali
welcomed
rics
fro@@
दह@@
webpage
याना
oni
aggressive
बख
60,000
TYPE
fos@@
थ-@@
Tit@@
मददगार
सेनाओं
सौंपा
Works
enco@@
संश
Jab@@
ero
gentl@@
हुयी
ढोल
Unlike
post-war
रवै@@
intervention
रांतीय
Priv@@
Al-Biruni
spray
लीम
enforce
औरतें
ury
खगोलीय
Diw@@
ł@@
लाइव
circul@@
exceptions
tab@@
Nuclear
yar@@
अवशेष
षार
protein
हटायें
दलित
णांक
Cent@@
अपहरण
सट
liberty
encouraging
nec@@
thoroughly
शतरंज
Hindi@@
donation
spaces
cash
rupee
researchers
धती
सुसज
Manual
inion
निरन
impressed
invo@@
कमिन
बदलती
हारों
गेम
गेन
agre@@
सोचिये
अय
auth@@
आइस@@
Inv@@
९०
सामुदायिक
6,000
सीपी
motiv@@
उपत
IL@@
missed
Club
optim@@
भै@@
मानचैस
sided
यकारिणी
custom@@
दीवाली
cy
कॉलम
akar@@
councils
पनिक
फाइलों
वसन
रैफीक
satisfy
incidents
लोमड
उपायों
ght
मंडी
amba
ishment
वरम
likes
निकाय
गतिशीलता
असंगत
ऑपरेटिंग
keen
थितियां
मानकों
यूनाइटेड
nat@@
वुड
counts
burg
दरवाजा
यमों
दाहिना
world-@@
dates
दाहिनी
भारत-@@
airport
fresh@@
priv@@
funding
जलाने
इड
१५७@@
copying
Anti-@@
मेमोरी
ogi
शिला@@
optional
३.@@
उपमहाद
Arab-Israeli
ताना
Hussain
360
यरत
रियत
Danish
oy
asth@@
tel@@
Atal
बाद@@
के.@@
४८
tiles
integrated
यून
चौं@@
रीब
threatened
सभाओं
खेतों
पिल
पिश
steady
caring
midwife
तीफा
17th
मसमर
वृहत
p.@@
jam@@
idity
आदान-प
रासाद
invented
collecting
खरीदारी
interview
wat
विदा
चेपक
cat
lok
थकों
occasions
छवियों
रासदी
समि@@
clim@@
अरण
Che@@
aning
trem@@
ki@@
muk@@
पीय
कीकैप
accum@@
सेतु
Consider
रोलियम
there@@
UL@@
suggestion
खरा
taining
फेंकने
Stat@@
ump@@
izes
छंद
headers
मेह@@
Tom@@
bom@@
side@@
fare
math
Printing
bulk
reporting
रचनाएँ
जू
रेटिंग
fat@@
wer@@
तुलसीदास
Much
17.@@
शाक
Record
urge
umping
Los
autom@@
अंदरूनी
तरंग
Deleting
Sher@@
tired
बहूत
debug
अपी@@
clause
Important
vague
six@@
E-mail
लॉस
आओ
,०००
rama
Initi@@
जामा
inspiration
Voice
Virtual
Digital
Dainik
nia
reason@@
निकली
आग@@
होत
सिकन
रीदने
नामांकन
emotions
HACCP
१-@@
रामा@@
ison
पुणे
उधार
deprecated
argu@@
earned
uff@@
ots
1860
मरीज
ाफ
27@@
POP
अथर
solic@@
dic
dit
representing
pav@@
वारि@@
aba
Arthur
sat@@
Amendment
single-@@
विड
bid
यासी
Steel
FA
इजाजत
nag@@
Fatehpur
विभागों
Big
यूआरएल
बजाने
uncle
जाल@@
Division
रुटियों
vested
bron@@
departure
Ala@@
६६@@
ris
कोडेक
ethnic
54@@
rem@@
बरसात
LD
LY
Hoo@@
extrem@@
Tak@@
roll
prefer@@
rag@@
धात
घं@@
बज
एन.@@
preference
ॊं
benef@@
तपुर
decor@@
Has
moun@@
8,@@
ore@@
कुट
कॅ@@
बसु
snake
techn@@
Pass@@
Dun@@
immortal
exposure
navig@@
Pla@@
interval
ताला
Model
Jai
शिकायतों
Geeta
colours
चला@@
intu@@
fortune
उपासना
sixth
exciting
ordinate
Television
दाएं
mantra
grand
cooper@@
Edward
queen
माला
जोकि
कोशि@@
campus
limitations
Trib@@
रभुत
mobility
Kannada
ella
ताड
prevents
sovereignty
Sag@@
Factory
दीपक
creatures
Termin@@
मिनी
अरु@@
सिंध
Fast
शिंग
clusion
वितरित
Don@@
forehead
itya
CC@@
peaks
fers
trend
treas@@
idols
spac@@
इसपर
आस@@
aman
plug@@
Kings
गैर@@
शिकागो
TER@@
जिसपर
मठ
looms
Da@@
Gorakhpur
Socialist
तुमसे
Repeat
पहुँच@@
в
Baz@@
लामा
शौक
ologists
पहन
DER
Stream
Energy
मैचों
रूपा@@
flock
allo@@
पडेगा
कुंजियाँ
के-@@
Lee
Auto@@
तरार
Amrit@@
A.D
Berlin
Kumar@@
mathematics
Reload
कमाने
pushed
gm
उदाहरण@@
पढा@@
कु
prayers
शने
bug@@
युंकि
पूँ@@
brightness
luck
logging
पढने
shame
ops
Downloading
cuts
devotees
संतोष
Pati@@
titles
नती@@
यटकों
monsoon
ॅार
सादे
तमिलनाडु
Feed
hag@@
अरुण
Mukherjee
kid@@
टेनिस
hate
estimates
charging
loader
lasting
lawyer
३१
तालाब
जलीय
anu
लेवर
mother@@
fails
shir@@
alarm
सामं@@
भागने
anese
heavily
पेर
PHP
pi
competitive
सबका
camels
िया@@
orthodox
रचित
EXTENSION
Strait
painted
bution
osp@@
argue
मरुस
privilege
graphical
modi@@
tol@@
आहत
°
Inland
Rap@@
लेषित
rises
banking
वारों
ऋषि@@
presidential
sad@@
Program
mechanical
avan
356
selecting
अधिकां@@
Welsh
किरा@@
Jar@@
computing
idd@@
cap
rational
रपात
Target
commander
लंग
गोस
supervised
publish
ढी
kas
acha@@
वेच
१९९९
Confirm
कृषक
adhishthana
erb@@
expired
capture
सुदर
tales
pli@@
सहेजे
बला
kin
Bag@@
छिपी
छित
mat
mankind
tale
quran
org
swi@@
Goddess
धां@@
अनुपालन
references
recording
gal
regre@@
chil@@
राजशाही
डियन
हेनरी
mix
boards
«
Henry
Antarctica
पराजय
node
democ@@
दायरे
cleared
Peri@@
रणालियों
Kak@@
architect
goats
मनु@@
कमाल
»
ईक
CK@@
डिप
abandoned
इका@@
बॉल
mutual
वापीस
कोच
bays
9.
lon@@
Panch@@
टिम
tings
सरों
funeral
तरल
stretch
tionality
iling
Palestine
knees
Bij@@
virtually
crying
तगालियों
fighter
उदाहरणार
Vari@@
रीमद
लिनी
ticket
intro@@
इजा@@
wider
Exp@@
contr@@
खिताब
होड
Primary
देवदूत
lig@@
dialogue
Ganesh
Sidd@@
खियां
अधिग
harder
ancies
presents
plug-in
नियर
लकप
अनुशंसित
चाहिएं
कलाकारों
flow@@
बासी
translations
रेश
पियन
E.
dious
Loo@@
वता
Advis@@
Constitutional
सेज
संवेदना
उक@@
असंतुष
copied
बनें
novels
pid
shooting
comparatively
राजप
perception
laughed
tful
attended
पेटी
बंधु@@
ze@@
alike
hil
BE@@
णुओं
entrepreneurs
shortcuts
universities
pending
revi@@
बकरियों
भाड
Really
बोलना
tening
memorial
खोली
Some@@
मदिरा
किशोर
downloading
civilian
झुकाव
satisfactory
Connec@@
hash
सोच@@
वंस
मविश
Prompt
emergence
OL
इंडस
SV@@
initialize
placement
सकेगी
vish@@
खता
येष
Motion
बागों
मुहर
कैनबिस
observ@@
sovereign
Agricultural
बीप
burst
डेंसी
Original
uch@@
अनुकूलित
anan
Shivaji
resol@@
fears
सरीखे
jump
माली
लगत
टाना
नली
घटाने
resume
aquatic
भागीदार
नतीजे
ores
जाएँगे
enthusiasm
ол@@
cancelled
N.@@
pockets
Plug@@
mystery
fertilisers
Avi@@
stric@@
Administrative
रविवार
से-@@
eller
system@@
0800
allies
throat
intensity
डुप
resolved
dressed
दानव
नासि@@
breaks
kis@@
सियस
संब@@
Khar@@
देश-@@
Saha@@
बहि@@
पुरु@@
Mill@@
storm
सुलझा@@
shire
Exit
चमक@@
fascism
pupils
हौं
slow@@
disciple
Pointer
exce@@
̀
ри@@
Spr@@
preserve
requ@@
fra@@
सुदूर
Aur
PC@@
misuse
सहस
grace
synchronization
br
WARNING
फोड
कें@@
ढु@@
बायो@@
forts
tial
confirmed
dilemma
33@@
eks
retired
निये
Buff@@
justified
बारें
pointing
Battle
Nature
अनलॉक
Shree
wich
distinguished
attained
Race
PPD
drew
visitor
Nobody
astic
bury
कडों
गर@@
sword
conduc@@
भरना
पंचवर
verted
occ@@
लोडर
sect
ided
Governors
fish@@
alize
सुरंग
Ach@@
Administration
rendered
सकों
Disablement
Kish@@
अनुभवों
बोल@@
Upper
आदमियों
रोश
रोन
invoked
750
देशवासियों
1907
गुटों
outstanding
Simon
wickets
४५
chler
Hum
चालन
पुरातन
मजबूती
Bow@@
mines
संभवतया
aggression
छठे
Rule
ru
kur@@
बिलियन
रंगमंच
temp@@
sor
कैदी
midst
Black@@
believ@@
ukh
aller
D-Bus
Ten@@
Direct
युराइड
भवती
दादा
demons
Bhai
तादाद
पहा@@
Emp@@
tenth
Nand@@
8,000
कोइ
streams
षपद
इ-मेल
माओं
धारा@@
मुना@@
गुलाब
अपशिष
beating
कैमरे
योर
age-@@
complained
ician
जया
firmly
मिलि@@
Bridge
देशांक
कृपा
zy
पया
ologically
endless
मुनि
sional
chequ@@
नोम
suspended
Americ@@
rating
oid
amendments
सुखद
Affairs
unhappy
धरा
gan
बोले
clay
संबंधन
१५६@@
संकुल
नकली
Naz@@
ठहाका
Express
tourism
ळ@@
10th
1968
bands
भागीरथी
पासपोर
गांठ
यों@@
डव
Thanks
वाच@@
tags
Secondary
नफरत
announ@@
conception
ok@@
rains
vice
conqu@@
पहुंचाने
जबड
Megh@@
inch
Gopal
बायां
समझाने
सहकारी
दुहरा@@
बाप
6,@@
मु
डिबग
अपरिचित
रूज
मिने@@
RGBA
वफा@@
reck@@
acids
Yash@@
कारें
वच@@
human@@
continuously
लगना
Currently
तिन
रदत
हने
इतिहा@@
वटी
Pandu
worn
जनसाधारण
nie
posing
leather
Beta
जीवाश
सिकोड
नू
edited
Ignore
adds
नेशिया
Que@@
determination
Techn@@
राशन
Little
nao
Div@@
शकी@@
geometry
Caves
upset
नरम
utas
Vad@@
brah@@
inform@@
landscape
prot@@
manual
possess
Acharya
केलिए
DO
ऋसमें
सेनानी
bottle
extensive
appointments
मंग@@
चाबी
लिहाज
dan
Gol@@
gand@@
सोन
Garden
ity-@@
राजग
राजन
ク@@
Ther@@
rowing
thro@@
coastal
drinks
birthday
realistic
शाहजहां
originated
Agni
योजना@@
.p@@
कटिका
shad@@
रिंस
Agn@@
dged
anno@@
खातों
घूम
Rabi
Gold
चूर
घाटन
idle
plate
वीन
academic
municipal
पडता
exact
पहना@@
practised
Prem
UTC
.The
disabilities
Gods
installing
reactions
behave
अलेक
Emergency
compar@@
मजाक
आयकर
excitement
देशो
coins
Normally
eri
तोर
अफगान
cz@@
Vijay
15-@@
लहरी
Commun@@
Shiv
rescent
Jaya
Recon@@
मानकर
losses
SA
हुऋ
visions
1911
ाएँ
जहाजों
फारस
जियम
पौधा
alpha
पूँजी
TE
compact
Sindh
url
immense
Victim
लाइड
गामा
apse
WOR@@
रतिमान
Wa@@
निचला
observation
afternoon
शोक
tit@@
140
Bookmark
restric@@
हॉकी
strain
खला
गणितीय
wizard
निग@@
इंतज
मीनार
घुमाव
आशं@@
ैगा
Rajiv
Desh@@
महिलाएं
cup
planes
Wiki@@
बने@@
ooth@@
CAIR
Redo
Joh@@
िप
FILE@@
ен
लिय@@
Khil@@
गरमा@@
ible
Photos
burnt
ahu
शियल
tanks
impressive
Bap@@
prey
lay@@
पोशाक
PRE@@
नजरिये
inate
tag@@
ठो@@
ता.@@
टोनी
लोवाकिया
sou@@
unavailable
मूक
साहसिक
Ai@@
तुलसी
reliable
ेल
कगार
मनाते
पुट
रैसेरो
रमाणों
invested
fool@@
मालिकों
टिया@@
accessing
Picture
thereafter
यूनिट
funny
सुने
uel
fits
राइज
अनुकूलन
बुजुर
पहुँचा@@
sist@@
रखेगा
transformed
т
अपराधियों
Tiger
Dharma
kab@@
इलैक
रोग@@
bookmark
пи@@
seldom
hepatitis
Interface
heroin
Plan@@
quote
anymore
वेषण
ario
Comintern
Smith
ढाँचे
पूछते
आयुर
Immigration
रोकता
Jack
बरों
तराखण
tank
ip
ii
Eleph@@
Employment
Sir@@
छुपाएँ
चलिए
lap@@
alog
इटा@@
Moh@@
Turk@@
indication
DV@@
झोब
explaining
asp@@
Ved
resolutions
bench
manship
Industry
Moon
कमरा
BM@@
काजी
DIS@@
विराट
primitive
सैयद
बेक
६-@@
Ghana
डबल
tailor
पीठासीन
काग@@
1905
ताब@@
गुल@@
letting
वीकार@@
thered
बोलता
ural
छोटे-छोटे
आंदोलनों
gur@@
onian
oceans
Tem@@
रीव
yst@@
Nevertheless
societies
ayan@@
रहीत
तर-पूर
तानिवेश
देनजर
drow@@
रकूट
depressed
रसा@@
षिण-पूर
wine
Fire@@
बढती
आरोपों
measurement
jee
धारक
races
यूआरआई
पिताओं
मूलतः
भुला
Liberation
state-@@
unexpectedly
Meanwhile
©
Labour
यश@@
convince
ण-काव
adir
aic
छुपा
आपात
संयम
urine
conquered
धीमा
ま@@
बसें
vast@@
Constituent
subj@@
Tehran
reads
नायें
distor@@
tire
नारियल
setup
Indic
03
Branch
अथॉरिटी
Luc@@
elect
ians
पृ
vel@@
लयों
ठता
romantic
sung
iter@@
openly
ayya
अवतरित
trait
rhy@@
रमबद
autism
Gdk@@
विधेयकों
preser@@
साधु
iter
पांड
छू
निरर
कीज
liquid
यावधि
adopt
शाते
कलाओं
apur@@
calf
dose
रिव
hil@@
kun@@
tissues
unlike
volcan@@
बॉर
मॉनमाउथ
93
गवाहों
बाघ
ranging
PER@@
होमवर
Method
mates
economics
बछड
गोद
कराई
जिकल
तरीक
period@@
Prat@@
Grants
hunting
भयंकर
RSA
meth@@
रशंसक
aug@@
viewing
ऊँचे
zip
ket@@
लापन
PLUGINNAME
travelled
Spec@@
health@@
मिटाया
घाव
लेंस
Journal
पायेंगे
yours
receives
quoted
काउंटी
downloaded
lessness
शहा@@
सुख@@
glob@@
involvement
Advani
नै
supervis@@
ashi
bride
imal
रैंड
टीमीटर
कुरुक
कहिए
लूज
Medi@@
दोहरी
differently
CO
vari@@
Safe
slip@@
ढाँचा
measuring
की-@@
रणा
रेख
tual
Texas
यारी
अधीनस
फाई
छी@@
Din
Filmfare
favourite
vig@@
striker
pin
astronomy
Moham@@
philosophical
rap
मसले
GP@@
सिवा
wom@@
dient
pup@@
wool
rubber
परे@@
libraries
Glade
Almost
Leon@@
Adam
sus@@
adverse
लूटूथ
leaf
चौक
Shel@@
रेंच
टेप
crown
angu@@
सैक
batsmen
modest
modern@@
Peninsula
itive
respective
यि
bell
तिपूर
char
Diff@@
ेशन
bombings
खली@@
अलंकृत
हैपेटाईटिस
अंतरिम
cow@@
peac@@
appreciate
Omar
रचार@@
चट@@
wasted
survival
Border
rendering
Falls
थनी
pillow
ढं@@
Skip
मुलायम
kop@@
admi@@
ceased
Return
compulsory
पैसों
1915
परदे
जोसेफ
Inc@@
accessibility
progres@@
entertainment
galaxies
सीने
-LSB-
चेकोस
हरिद
कसौटी
stan
ष-@@
autonomy
icate
शकुन
MAR@@
Otherwise
lovely
शर@@
रेमचन
हिदायत
incidence
Oblast
दुखद
poss@@
बेनाम
दुखी
Environmental
debugging
tex@@
Post@@
yarn
acquire
Ret@@
rage
Release
चाहि@@
एकात
Sav@@
Chair
Wid@@
अनोखी
BA@@
Chalukyan
Louis
tooth@@
okay
भल
BE
सोसिएशन
हैरोइन
nearer
Playlist
E-@@
diagram
sures
conclusions
Humayun
lays
vey
योगि@@
wherever
parameter
बलि
bombs
छं@@
allocation
Iron
doub@@
उलट
disciples
दुः@@
Setting
sey
याहू
Stri@@
check@@
ैं
रसूल
तारक
सौदे
temporarily
शालाओं
Gon@@
यमंत
हँा
Cell
Trading
Rig@@
एट@@
Running
वाइंट
घूमने
servant
ec
fires
disrup@@
Shift
गज@@
निबंध
Khalifa
घनिष
हारि@@
meanwhile
यिकीय
visits
ऋषियों
Ken@@
pixel
Fundamental
Gnote
competent
renew@@
झीलों
विकलांगता
harmon@@
आवंटित
Gate
पहनने
controlling
wages
Kit@@
ves@@
aig@@
Tol@@
gest@@
Unexpected
सींग
Tux
retain
VNC
Chromoting
beaten
enic
shots
bose
हवाला
करूँगा
दृ@@
varying
displaying
ईर
ı
बेड
जाँचने
speaks
impro@@
diplomatic
अपरा@@
उभर
अथारिटी
strict
औरंग@@
awali
नशील
गुच
वाष
पराजित
Sports
साध@@
Bijjala
dur
रतिमा
Gri@@
तेजना
hazard
etion
Karun@@
acks
FF@@
रीफ
Til@@
Mong@@
रियाएं
Ball@@
settle
passengers
presid@@
tendency
Uplo@@
निकलना
bite
Stre@@
पायें
IM@@
अराजकता
publications
accuracy
listened
समाविष
trials
Mans@@
browsing
stra
Employ@@
logo
Penal
Dw@@
Lakshman
smo@@
Jersey
रियास@@
ऋक
सिने@@
atmospheric
aimed
संगीतकार
Budd@@
Economy
गांधी@@
Final
रृंख@@
precisely
मजा
allotted
वेज
पीट
लेटर
transliteration
शियाई
vedi
Presidency
rist@@
पग
यशाली
affecting
secondary
खुदाई
reverse
विभक
खोलना
Nagar@@
ressed
Weather
stub
सैंड@@
sour@@
Had@@
Junk
Poet
हृ@@
sage
हैम
सिखा
Num@@
attempted
इज@@
promoting
tern
रूत
unfortunately
इयां
Enter@@
बुध
rak@@
महारा@@
अपरि@@
uman
बाली
बशर
rum@@
भयावह
dun@@
Speed
compiled
holidays
vedic
firing
Telugu
लेवल
landlords
yap@@
commerce
tune
Magistrate
यारों
salt
objectives
रुव
Cold
Disability
broadband
परिप
Payment
तालमेल
partnership
visi@@
घूमते
MAC
ashing
Regional
Bhak@@
ackers
concerning
भेजे@@
५६
icting
अनुसूची
राधिकृत
पुनरावृत
abol@@
ares
jour@@
UC@@
सानी
तानों
mantras
Activ@@
cleaning
shou@@
SCHE@@
Usage
itor
obstacles
मति
ाम
weakness
definitely
मानव-@@
din
surprising
आठवीं
मिलन
ame@@
pronoun@@
manufacturer
emissions
तां@@
dial
हसन
instances
फान
जनजाति
कैकेयी
barriers
बरसों
सोर
respects
namics
isolated
sens@@
stal@@
gab@@
टाइपिंग
ring@@
Summary
Rus@@
हों@@
mill@@
IL
ibility
Play@@
तनत
यका
reflect
Netscape
Prakash
वैन
ousness
fullscreen
यारे
inking
constituent
णिका
फुट@@
tiers
Poetry
डेबियन
Kumb@@
Daddy
संवेदनशीलता
टेर
guil@@
spin
filing
mim@@
nas@@
concentr@@
तमा@@
Out@@
डालकर
नग@@
कदर
sects
लची@@
मेगावाट
chat
Kai@@
बसा
WH@@
Andro@@
19वीं
choosing
biology
बूत
शुरुआती
plot
Mugal
disputed
inger
तोष
पौष
adise
हमदर
Qष
निजीकरण
समूची
परवर
Patt@@
phrase
कोना
डालना
assem@@
mausoleum
Pain@@
टूर
समय-समय
तवा
रोता
Multiple
tent
रेंड@@
Stud@@
auj
itations
Gov@@
VE
विकार
नशीलता
somehow
profits
टिशन
माइश
Pearl
fertile
Id@@
बफ
backed
Councils
subsi@@
time@@
या-
subsequently
galaxy
Sanjay
अणु
cler@@
फंट
सि
Laden
supplies
चुम
dered
Tree
Shol@@
बाकू
जंगलों
surfaces
managing
मिका
नीचर
START
सरणी
utilisation
bour
Maharaj
रजातियाँ
etch
ка
Gos@@
ounding
SUBST0
Injuries
guimenu
sentiment
cover@@
फैलाने
दाय@@
chapters
रेशम
execute
reward
array
fertil@@
ीक
bir@@
छानबीन
stret@@
Allows
apparent
valued
बरा@@
Joe
regards
उठती
उठते
altered
atile
clan
Virasha@@
зв@@
ताने
travelling
pap@@
trak@@
goo@@
inser@@
आयाम
mast@@
विभाजक
preventing
रकर
विजे@@
ladies
सुंदरवन
वीकरण
Ale@@
ऑब
ā
chooser
Zealand
पारसी
बाबर
कतई
gha
thri@@
confidential
fi
Neither
पालि@@
Preamble
distances
वैधता
घुटनों
दबाये
इलके
deposits
notices
परेशा@@
Bookmarks
ललित
oor
extr@@
पूजा@@
pillared
यनों
ө@@
Democracy
tackle
मोती
युटर
Java
विफलता
समाचार@@
Sikri
मनाही
Suk@@
attributed
SMTP
consequ@@
ोत
Wall
भावों
भोज
खट
पीते
shoot
onia
eni
Int@@
धाम
Alignment
coin
एडवर
strength@@
boss
technological
ng
Kash@@
Nak@@
HRP
Pune
Bus
मैत
applying
invest
dead@@
झिल
दम@@
exclusively
संरचनात
अबु
लौंड
gau@@
रुओं
loses
stit@@
कपडे
Rotate
उठाये
वनाथ
onary
uries
bits
consultant
iva
अफसरों
st-@@
aam
शिकायतें
1858
T.@@
गाँ@@
2013
Ravi
तानाम
जिए
हुगली
sits
ऐप
चैट
यकरण
bott@@
verify
किया.@@
aned
governed
वाज
रलय
investors
मीदवार
physically
collective
aditala
vegetarian
कवर
kao
हरें
loop
अवरोध
Govern@@
medic@@
तचाप
फांसी
PL@@
सोशलिस
Cham@@
राजकु@@
criminals
British@@
लेटी
mic@@
DETR
pha@@
नोक
नोड
topics
Christ@@
Intimacy
strip
Sagar
ाता
शिवा@@
popup
rying
framed
लोकतान
ईमान
Oil
technologies
arising
लाभप
ideals
CD@@
जोन
lamps
डियाँ
नामित
विक@@
goat
पारिस
शिविर
mitting
shepherd
तनिक
टप
My@@
sian
दमा
auto@@
सूचीबद
attractive
ठंडा
अरविंद
att
control@@
अथ@@
Feynman
Reas@@
lighted
Bec@@
चलाए
Khal@@
ॅ
तानाशाही
मों@@
contribut@@
WAV
जादुई
indranath
दूर-@@
लगाता
il-@@
shorter
bes@@
consensus
charity
traced
अवरो@@
alties
Expand
करुणा@@
combine
Inside
लिनक
lap
अदालतों
जुटाने
Wik@@
खारिज
catering
histor@@
पढाई
Tower
खोले
सिमट
Memo
CN@@
Story
कअप
plac@@
ste
ाइलनाम
इकाइयां
उपरी
तानुसार
रखरखाव
उभरा
अवमानना
Recently
ठक
गोल@@
नि-@@
बफर
joins
आयत
समु@@
Tomb
eved
involve
आधुनिकीकरण
Given
226
Constant
कपि@@
dang@@
omed
argued
DC
tract
crow@@
measles
struggling
peration
Rajguru
षो@@
hya
माई
Potter
सुलेखन
फास
ews
जीविका
F1
चलाता
Signature
निर@@
lover
struction
planets
खोजा
prevalent
मुर@@
ła
confident
रा-@@
रशेखर
exclusive
Boo@@
night@@
लो-@@
उदासीनता
tively
alika
Gul@@
PLA@@
Rob@@
completing
बरा
लेप
0.5
Hence
सूअरों
tish
Arts
समी@@
भास
genius
discipl@@
forth@@
shipping
uality
Him
olds
dozen
proce@@
menuchoice
रतिरूप
fabric
रुटी
osa
jected
नीतियां
Live
Bhushan
Fat@@
पायन
ve-@@
allam
cream
घाना
defin@@
मैसूर
017@@
fundament@@
fewer
मेरठ
ez@@
Jesus
सचिवालय
indis@@
greenhouse
वधि
सिड
bra
येन
Ho@@
असेंबली
जुटे
Mid@@
erer
conf
aaoM
diplomacy
Paid
Resize
verbal
ॅल
delayed
overseas
मनोरं@@
conviction
SE
kara
reviewed
वेदी
बहाना
servants
prevailing
ayed
ैंड
अमृत@@
Editing
Flu@@
TOOL
रांप
Extra
निकास
पॉटर
रीगेटर
clin@@
मला
decreas@@
ाइन
जिल
Kann@@
GRO@@
नंदी
threshold
Grand
Climate
वासि@@
यंजन
Blood
merged
अमर@@
विलोकन
वाम@@
discrimin@@
reaches
मोदी
Territ@@
MEN@@
मफेयर
parallel
घुटने
sla@@
red@@
posts
gy@@
परिधि
Krai
statue
आउट@@
compressed
बाजारों
obs@@
ін@@
50@@
अनि@@
Contin@@
ततः
interpreted
imper@@
वैचारिक
ताद
शिला
theatre
धुरी
book@@
morality
episode
Angeles
ications
तका@@
एजेंट
Governor-General
मेघ@@
घोटा@@
tast@@
Federal
container
archy
atri@@
nour@@
हकीकत
О@@
उपभोग
CPI
boun@@
दलि@@
अहमियत
committees
therhood
ॆ
आदितल
shel@@
classified
BASED
ango
ेसर
Tat@@
ाकर
रसी
Focus
खींचा
Eu@@
नीलामी
nitrogen
palaces
Maxim@@
पेशाब
लमी
Fifth
octagonal
Emer@@
execution
Operation
रतीकात
Bod@@
फातिमा
रखर
दरी
Fish
Short@@
Arun
लकी
missile
दबाया
125
रमण@@
खेलना
govt
Austria
sticks
ादी
000@@
kernel
disconnected
ornam@@
हिरण
achieving
norm@@
.कॉम
इए
पऋ-ऊण
यपालों
८-@@
नुस
defend
invisible
fulfilled
Ravan
मारवाड
protecting
Friday
एकाधिकार
PP@@
गवाही
shook
resist
चिपकाएँ
counsel
laughter
महादेव
unch
Grad@@
poll
रवक
patri@@
हूई
आबू
भं@@
measured
ruth@@
सोलह
मिं@@
विरूपित
gro
डकर
desires
सेम
Manually
रॉबर
Yaj@@
जनगणना
SS@@
loads
isance
virtue
sq
icated
parency
Seven
अवगत
शोध@@
दवाएँ
हिमनद
शासनकाल
experim@@
णयों
hel
Sultan
जागरूक
दून
Hebrew
astrology
निकों
हिर
मवर
admission
palm
अनुष
ub
बहुधा
आंख
बलता
counter
रेंट
तरफा
भोपाल
बैठता
tut@@
चैन
चोल
Edge
exercised
encing
निमंत
condemned
Afric@@
capita
-like
partic@@
linguistic
उसपर
इंड@@
Fac@@
खजाना
kat@@
Sall
cookies
khan
Programme
Goa
दुकानदार
omb@@
वेग
excluded
परांत
chant
सूर@@
lectures
डच
परंपराओं
यागपत
बुराई
Plate
ente
101
जावा
थो
चुनते
ayu
listing
Mol@@
expectations
से.@@
prise
ढूंढने
ानिस
मुखपृष
लाह@@
Ste@@
drop@@
electr@@
TYPING
manually
मातृभूमि
बाल-@@
badly
vity
gan@@
Studies
सरन
वस@@
मुकद
071-@@
obsolete
populated
Mud@@
butterflies
legally
giver
OpenGL
colony
pop
वाद@@
शाती
forb@@
gene@@
धेरा
rock-cut
लाला
भरण
seized
Safety
erly
erc@@
.net
84
रशं@@
सरो@@
Kel@@
Fam@@
पीली
योजित
blu@@
Ekiga
नीत
भीर
ATE
ATA
कापी
clari@@
gifts
avo@@
pound
साध
घकालिक
eval@@
आवंटन
परित
producer
anity
अल-बिरूनी
Kor@@
अलवर
उपराष
terror@@
off-@@
lal
तांतरण
Rak@@
Usually
zation
धियां
ाय@@
lad@@
टूटे
Lev@@
aoM
मोह
जुडी
processor
पैतृक
lid
lic
सरी@@
Industries
तुशिल
अंधेरे
AM
तथाकथित
globe
चमकदार
bears
legitimate
powder
atri
cc@@
लाय@@
&apos;S
निश@@
offensive
fodder
९८
colorful
overs
तज
TEXT
ville
Mel@@
Prin@@
Develop@@
शि
DP
Ramadan
itch@@
countrymen
अकस
pm
NDA
yesterday
failures
shock
चुनिए
dal
अवरुद
समझाया
loves
Sending
define
rectangular
м
अरा@@
Regiment
widespread
ैसला
ув@@
eps
लांच
Jod@@
HD
Dam
tribunal
Effects
filters
काक
abstract
Pet@@
shor@@
गिना
anniversary
shouldn
जलसन
मैलवेयर
framework
engineers
भेनेङिट
सकल
Yemen
उल-@@
कदमों
टी-@@
iest
Chho@@
dges
deny
CD-ROM
अनपेक
महिलएं
सिया@@
spokes@@
कमे@@
altogether
eighteen
धम@@
Zफिर
passenger
Tool@@
Me
recipients
शंकराचार
उछाल
memor@@
ід@@
Clean
domin@@
pull
पठार
यण
sulph@@
Carl
algorithm
मरू@@
ंकि
निकलें
ूं
निभाने
Modi
riding
Vikram
खिलाडी
pires
lifestyle
Directorate
Amount
०००००
concluded
पता@@
बीता
एन.ए
architectural
Ny@@
बाला
रुपद
alise
invitation
बलुआ
नेंगे
Bhakti
जीना
Se
योति
निषेध
थेन
consistency
Living
सवीं
Khanna
tobacco
tens
बुनियाद
भुजा@@
appetite
physi@@
lear@@
आच
neutr@@
Process
failing
रुपया
10.@@
षद
diagnosed
मदों
दिखाती
misery
cla@@
बहोत
Khan@@
obstruc@@
सितारे
डाइऑक
मोह@@
Captain
मजह@@
सतत
सुविधा@@
sho@@
टमेन
allied
uv@@
Option
year@@
सपाट
तंभन
Chem@@
ona@@
NETWORK@@
incur@@
SEARCH
ennis
ऑटो
dimen@@
फैशन
टंकण
К@@
भोज@@
उपबंधों
delicate
ninth
sak@@
thers
deserve
मेजर
shore
gopura
कुरा@@
जहाँ@@
टिगोचर
breach
concessions
whilst
fascist
ishad
unclear
Bangla
दया@@
कराती
किया@@
कराता
sulphur
Mysore
despair
अधू@@
supporters
१९६०
मौजूदगी
16th
एयर@@
बलपूर
dimensions
ax
उपज
middle-@@
दूर@@
devi@@
थानी
bo
meals
Friends
painful
Sant@@
promo@@
षितिज
संचय
con
कॉपीराइट
she@@
liability
expanding
productive
डान
अभिषेक
तीनियों
सूट
Mumb@@
RI@@
Hotel
restor@@
gaining
minded
थार
asy
APPNAME
Bharatiya
रिमंडल
guaranteed
Surat
PM@@
spelling
updating
bet
कफ
um-@@
Dav@@
medieval
नाकाम
nel
eh
नाना
hydro@@
dawn
tant
रचलन
अनू@@
ेना
Split
sanction
neur@@
construct
ming@@
इरादा
practic@@
pes
Shared
batt@@
Conn@@
काशी@@
terri@@
Parishad
बती
सुनाने
जुल
instant
टिओन
princes
वीडन
Dravidian
esome
शियां
खच
चऋ-ऊण
tac@@
भली
राजेन
पेंशन
बकरी
alit@@
criteria
यत@@
servic@@
रवण
announcement
communicate
tee
accompl@@
अजी@@
Veer@@
Shahjahan
olk@@
सड@@
वू@@
इंजीनियर
गाया
fossil
अंजाम
pursue
aving
Sanskrit@@
Effect
३००
Chur@@
utter@@
रकीर
pag@@
establishing
Systems
दड
pow@@
यंस
inter
memories
कली
मुनियों
illed
spirits
allegiance
necessity
खाया
pale
Assured
Draw
धिकारियों
विनोद
infinite
ऐस
सौन
१६०@@
हता@@
कोय@@
असहमति
versus
rocks
NetworkManager
संरेखण
responded
Monitor
Netzwerk
ॊ
oba
emic
Radi@@
uck@@
वायर
पास@@
Mars
urveda
ネットワー@@
रेणियों
auto-@@
scroll@@
NUM
Impossible
अलं@@
сет@@
मीरा
पीला
therapy
decides
धिमत
पुरूषों
uten@@
Sahitya
घोषणापत
उतार@@
नशे
उभरे
acknowledged
workshop
blessed
class@@
समुच
attain
cked
Sundar@@
शिकारी
silk
Anyway
opponent
-न
FTP
decrease
alis
डियो
Judicial
mir
छाड
cribed
झट@@
जेटली
अंपायर
बतायें
sympath@@
roles
insisted
गुं@@
दामों
oath
Law@@
bhai
नमाज
Dy@@
Maharshi
tables
tablet
pro-@@
Square
habad
कमाई
योजन
Rishi
echo
बुला
पुरातत
rian
गस
Username
ato
refer@@
Mahendra
तिरु@@
с
Serial
रूक
और@@
remind
संभाव@@
validity
BALCO
dless
विधवा
14-@@
Eng@@
Gamma
गृहयुद
शरी@@
vis
कूट-शब
फाइलें
Aa@@
तकाल
उतरने
Rev@@
मांगों
कथाओं
Breast
viewer
जेस
eti
छाओं
vern@@
तिर@@
डीज
Ath@@
kewise
sting
एपी@@
aph@@
पेपर
clinical
grading
slogan
ऋर
Vietnamese
Hollywood
बोन
फायदे
Chola
anian
lateral
TIFF
Deccan
concentration
तुष
जी.@@
तेरे
मानन
मुनाफा
AR
boolean
फौजी
sweets
दाने
mam@@
awa
केक
IDS
contest
खिल@@
षेपण
dering
Tenant
Arya
Birth
शृ@@
सचेत
शॉटवेल
अह@@
praised
औषधि
6th
onomy
DN
trace
bags
ү@@
रिसर
abs
करु@@
मनोहर
रबड
muscles
Sample
सौर-@@
1966-@@
fatal
Pho@@
facilitate
कीटना@@
गाजा
GS
asses
लपे@@
turing
confron@@
दबाऐ
theore@@
kingdoms
Independent
dial@@
रच
acri@@
Age
secured
classroom
उपयॊ@@
prosperity
थाप@@
चोटी
भूति
लीफ@@
ववेद
Flo@@
नॉटिलस
Pang@@
fan
sman
बादामी
intense
repeatedly
खानों
well@@
इऋ@@
३५
शाहों
Mishra
hib@@
नजर@@
locate
Outer
ministries
venti@@
राबर
iry
ुल
etics
Dist@@
निकालकर
complications
ML
बांध@@
नेन
tracking
timeout
pig@@
तर-@@
कोरियाई
ढाई
dismissed
Basu
bytes
collectively
belt
थी-@@
lessly
चौहान
रें@@
bred
gnome-@@
resignation
AM@@
render
PAG@@
Artist
anted
profession
armies
Character
athe@@
maternity
रहीन
बादी
नहा@@
जूरी
1918
diag@@
संगति
Portal
ipp@@
Installing
Locked
लगाएं
Centres
widow
Consequently
Types
शीत@@
सेने@@
टीबी
अंध@@
निचली
tos@@
equip@@
ताओ
2500
21st
lotus
pixbuf
इराकी
assurance
अमे@@
Vishw@@
dhar@@
संतोषजनक
हाड
consult@@
गरिमा
Increase
बढा
mismatch
nim@@
hydr@@
रवेशद
approached
Outlook
सु
लाग
entertain@@
motor@@
सुविधाएँ
associate
भीषण
bail
wedding
ä@@
tari@@
beside
possessed
unemployment
umes
dinner
atti
Sli@@
Bhat@@
Accounts
अटलांटिक
eighth
inform
Chalukyas
weep
Municipal
शिका
Arm@@
legi@@
roofs
threats
19-@@
zy@@
ंज@@
॔
Peace
उलटी
समझदार
Governorates
Ethernet
रिटर
veness
Champ@@
nir@@
promin@@
मैदानी
PNM
Consum@@
सवों
trun@@
वकीलों
Bed@@
256
presidency
uma
ven
revert
मेशन
रोसेसर
सचाई
theast
life-@@
trains
neglected
कबीले
बीसवीं
Approval
डेनमार
planted
रमंडल
नाच@@
खरीदा
राइट
अनाथ
२५@@
टां@@
केट@@
रतिवेदन
zabad
organize
वीराज
25,000
flexible
leng@@
दपूर
immun@@
rail
pays
फाइल@@
ei
essence
Ya@@
जनन
specimen
विनम
onau@@
rors
रखनी
capability
deciding
दरा
मेश
hous@@
governor
गूढ
कंपो@@
linkend
Tut@@
cle@@
हाऊज
कज
inga
123
बीरबल
शरद
सेवर
atial
frightened
М@@
je
रदू@@
lifetime
イ@@
del
नाई@@
Updating
धमनियों
नने
insist@@
धारणाओं
pleasant
rut@@
हिम@@
decoration
Adjust
neys
अपरिहार
Tab@@
Someone
exag@@
Kop@@
िजा@@
F-@@
ь@@
मुगलों
minist@@
sia
पाएँगे
VER@@
धोपरांत
bak@@
compul@@
ोस
lau@@
गती
सादी
か
m.
demanding
sq@@
चिंग
Chap@@
yad@@
adhyay
deo
नतम
apex
reveals
Subashbabu
Class@@
नृ@@
Quick@@
रबी
Rock
proli@@
पेय
asing
Ax@@
आठ@@
tends
रचुर
चरा@@
ce@@
gers
ाइयों
तराधिकारी
profound
bering
spon@@
पालिसी
अंतरंगता
रुपए
बेसिन
संजय
philosopher
पाएगा
browse
ठंड
mating
Permits
किं@@
अफसोस
Fai@@
उदासीन
Thereafter
WiFi
priest
mans
polls
इतालवी
रांसिस
milit@@
competi@@
हिप
अनावश
यूआरआइ
Aurobindo
वाधर
किशो@@
Sev@@
डूब
दिलाया
Hav@@
Hey
Bin@@
EX@@
Timeout
पंचायत
वकालत
logs
रॉय
Dol@@
warmth
विरोधियों
Separ@@
ullah
promises
1957
फेडरेशन
कांस
Gun@@
नान@@
now@@
fair@@
लगू
दरें
जनसांख
१९९१
टीमों
Irish
गेटवे
राजसी
withdrawal
बरेली
Dev
गिरी
राचीनतम
अनगिनत
vable
persistent
हिंदुत
FA@@
Kail@@
जिं@@
08
uni
सहेजी
१९९८
Vit@@
meanings
lows
voltaic
इंगित
Translation
शेक
gul@@
Chapter
T.
बताइए
Scheduled
flex@@
utionary
electoral
रतीकों
मजेदार
मथुरा
पारपत
सलि@@
पला@@
सिंहासन
पंच
णमाला
Owner
जग
Electr@@
Jordan
थानांतरण
उभार@@
tness
Treaty
डियां
gic
Vyas
छद
जते
असंतोष
सनी
उठकर
Yahoo
फिया
Too
GTG
नोटबुक
pollen
Clos@@
governmental
शीय
शीट
sil
gall@@
flew
Mont@@
sigh@@
चमकी@@
hardship
मरे
academ@@
ranks
संभाला
फेट
onics
Spacing
Gram@@
अंकों
किंगडम
findings
Chatur@@
yards
loving
किन@@
routes
ATP
bureau
fame
wada
तावाद
Prab@@
अपा@@
शेर@@
016@@
spur@@
मैरी
तुएँ
Hub@@
बिजली@@
तेदारों
यामा
thrust
दिखेगा
लॊ@@
GCompris
पारस
Launch
hiding
मांग@@
simultaneously
angal
Green@@
seemingly
मसूड
मकाण
गाह
honest
traction
जैव
होश
ego
lin
lip
काय@@
susp@@
mys@@
यायधी@@
मिलाने
-the
पाचक
खेलते
ठन
कोठरी
veget@@
सिफारिशों
awn
Harvard
फड
coordination
prohibited
झींगुर
ढूंढ@@
superstructure
arri@@
Single
आदिम
bay
Taj@@
suppose
assault
Stephen
ताइवान
proteins
Ind@@
शद
Congo
voices
use-@@
वयंसेवी
दुम
pping
ला-@@
obligations
Chhattisgarh
flags
deputy
consum@@
intensive
दिन@@
बत@@
बग@@
जाय
curved
yth@@
clinic
assador
Scientists
एंव
वीडि@@
sab@@
kind@@
pion@@
टूटी
फाइनल
Rajendra
dedication
Unsupported
संकलित
रः
Maternity
motions
Colors
J.@@
ढलवां
materi@@
इ-@@
organising
regulation
hia
जुदा
litter
परजीवी
poo@@
Kri@@
वारे
adeshi
Ko
1.2
privileges
तालियां
condem@@
यापिका
Le
Lakshmi
कॉफ
inging
सैद
rin@@
sorted
हरित
Token
ेकर
dirty
harv@@
Kay@@
Fit
वेदना
extrac@@
आयरन
understands
pilasters
यायन
किसने
समय-@@
Marine
संगमरमर
Aviation
Used
revision
erous
पागलपन
Extensions
अंदाजा
आधिपत
tape
jad
अकाल
P1
sculp@@
wet
रशस
cmd
bro
avi@@
वाईस
monol@@
gal@@
ctions
professionals
रीमती
sixty
मुट
Town
Boston
1916
pact
संकुचित
ozone
484848
salvation
Run@@
esha@@
OCR
राजकीय
घने
Sena
नपूर
upp@@
ucc@@
रवी@@
भगत@@
mac@@
१९५०
differ@@
रिज@@
यरों
SpamAssassin
appreci@@
Unless
ताश
jacket
भाषा-@@
adviser
मँ@@
औजार@@
रसोई
एकदिवसीय
मापा
वृध
dramatic
assist
consisted
नाएं
हॉलीवुड
assets
founder
UNESCO
advertisement
cure
शीशे
cooker
Hay@@
Mahasabha
industri@@
सुभाषचंद
होंठों
ulating
चोपड
रॅ@@
झीलें
gd@@
वादक
Fourth
distur@@
adhi
मिलीमीटर
grandmother
expense
Panc@@
अलग-थलग
zeal
ahi
धू
rol
खडे
ओपन
persist@@
1923
रमाण@@
pilot
उदा
70-@@
-ऊ@@
ओरि@@
टॉफ
करोगे
alien
vap@@
अधर
बहार
आदी
गठबन
युवती
इंटरफ
appro@@
Colomb@@
stly
सेकण
Sikhs
अनऋ-ऊण
Guide
नियोजित
creature
कूली
यारण
anten@@
षी@@
essay
सना@@
Step
sharply
blown
ー@@
चकित
फेसबुक
phy
राइस
भावनाएं
माव@@
flash
तीत
हटकर
आलोच@@
packed
शिफ
जंक
Tor@@
protests
Meeting
witnessed
fool
dung
Lancashire
atable
Mahab@@
Issued
औचित
stro@@
refug@@
हिणी
ियो
auto
भारती@@
sands
achievements
Indic@@
businessman
इल@@
Fur@@
62@@
sizes
शनि
माउन
देवी-देवताओं
posting
zones
chec@@
stability
touching
बेतु@@
हज@@
इलकों
हुआ@@
राउ@@
config@@
उदाहरणों
kh
gates
वाइसराय
चें
laimed
नेह@@
बेंच
जुट
रास@@
Gad@@
एडम
िले
ceiling
३९
thanks
ओगे
ईद
partitions
ji@@
रधानता
नाड
of-@@
Talk
ov
गॉ@@
ICA
epics
vial
oy@@
Dan@@
identally
disposal
uran
Kin@@
Taiwan
Argentina
owe
तेंदुलकर
esian
बेचना
चुन@@
1950-@@
rd
Land@@
rings
Gra@@
jah@@
काएँ
हिंदीकुंज
नाथन
alled
PNG
षतया
फेय
टैन@@
ठहराया
survived
termed
qualify
हिज
Kis@@
ource
Son
Classi@@
income-based
हृद@@
ғ@@
mixing
touches
finger@@
गलतियों
mier
एकांत
टांग
blowing
चैत
अनुभ@@
Beh@@
bombing
Analysis
itted
ळ
disagreement
Explorer
नाद
तमाल
विसर
gconfd
वैवाहिक
अभिनेत
Cu@@
Revol@@
वालामुखी
Century
astronom@@
secrets
Ltd
stamp
Draupadi
Switzerland
rations
tiveness
डेवलपर
sages
Sai@@
दिता
247
ंडु@@
enables
acial
unt
Compact
classi@@
Crime
विवेदी
psy@@
Jahan
speakers
reas@@
serves
sophisticated
deen
drivers
Sid@@
disobedience
discourse
jar@@
Ramakrishna
सूखा
Mac
bind
per-@@
confusion
muscle
aths
obst@@
elabor@@
गोविन
I-@@
Dre@@
adv@@
विरो@@
Fair
counting
लेपन
crashed
que@@
Nep@@
सिकुड
रकाश@@
८००
actress
furniture
बेल@@
बालू
briefly
Disconnect
सिलसिला
Traditional
YOU
amended
innovation
Chandigarh
rainy
Motor
Baba
लैपटॉप
tack@@
unprecedented
rajasthan
digit
pak@@
pulse
धनु@@
kon@@
2,500
Bhopal
ambitious
खान@@
वाधीन
करि@@
centers
सविनय
barely
dood@@
chase
जीभ
phen@@
विनिवेश
pigs
बचना
बंदर
neighbour
लिपिक
Pod@@
चढ@@
し@@
static
DAV
Context
Configuring
solid@@
lan
56@@
admits
बोतल
genuine
conserv@@
horizon
umpire
Present
alg@@
ठी@@
thal
हाँ@@
हिमालयी
जमींद@@
फल@@
Sixth
enjoyment
lender
पवन
の@@
Height
sentenced
centr@@
full-@@
तैइय
than@@
SOCKSv5
SPE@@
AP
AS
note@@
मनी@@
सहभागी
Railways
iPod
senses
anka
anki
यूनी@@
utility
Assistant
Parva
खुश@@
ulous
पुश
लरी
commit
थरनेट
gradual
seas
precise
73@@
Pras@@
ranking
contracts
सँ@@
mare
Playwork
い@@
disappointed
quietly
वाद-विवाद
abh
िरी
ingu@@
माम
dancing
Birla
वेबपृष
eliminate
germ
दिला
विधा
enni@@
identifier
tension
lecture
Pay
राणु
राजद
seeks
enjoying
लिकन
rah
लांट
कनिष
caravan
puzzle
accommodation
डोज
Pon@@
reminded
संकोच
ratha
आयामी
Things
Different
Opposition
Ray
उपरोक
conquest
तरनाक
नवी
procession
अकेली
८.@@
तकलीफ
लॉगआउट
रोमांचक
purely
Arafat
warranty
थे-@@
माथा
पेंट
कमा
interpre@@
Self-@@
intake
रामचरित
कटाई
कुछेक
spectrum
ऑटो@@
coo@@
कॉक
Persia
hao
Swedish
palms
avar@@
manif@@
डकैअर
ball@@
ताकतों
imagined
basin
riots
दाढ
सदनॉ
यश
थैली
fail@@
Face
आडियो
साउ@@
पाँव
Jones
organ@@
दो-@@
wand@@
राँस
clients
णिमा
Reliance
comprising
उदा@@
मैनु@@
swimming
टेढ
fourteen
f-@@
stration
QR
सलमान
Fri@@
Begum
रभाग
बाई@@
rainfall
prompted
Connected
suspected
हमल
फार@@
योज@@
ador@@
बलो@@
ंडे
physics
eed
TP
TD
बनानी
नीली
गठबंधन
copyright
charming
attachments
Ide@@
ताना@@
inda
सेंसर
Sangh
mysterious
asha@@
refuge
anie
भारत@@
आद
etting
निभा
marking
झूठे
store@@
दस@@
membership
-से-@@
ити
sheets
promising
Hur@@
nam
avali
skilled
साइन@@
बजा
though@@
राजभाषा
socially
ати
उपनिषदों
ंबना
doubled
कीकरण
पणियों
अनर
रवार
भावुक
Vil@@
कुरआन
communism
आनंद@@
productivity
rushed
time-@@
Part@@
Sahar@@
insulation
heights
displays
Tell
Saved
chron@@
नरक
गंदगी
रिवाजों
Navig@@
संघात
Arun@@
यब
sciences
pilgrims
Karan
आयेंगे
sequ@@
यूनिवर
Dark
Pros@@
अपार
Armed
सुझा@@
instr@@
ishers
रैस
rown
रिकाओं
て
aph
निए
बियाई
हैं.ये
monuments
carrier
योजनाएँ
Abbas
महाप
substance
39@@
लार@@
descrip@@
preced@@
कायदे
वतों
तकिया
anth
periph@@
Gab@@
Zकि
कतर@@
dispen@@
रहवीं
सनातन
formats
summit
संकेतों
erial
cryp@@
जी.पी.
aced
विलुप
दीव
akh
सोसाइटी
जहांगीर
ascetic
खिलौ@@
Wars
खिसका
assass@@
खबरें
रसर
quick@@
some@@
dense
ृत
Ut@@
चूक
mush@@
striking
शिर
सूई
resid@@
ओर@@
बूझ
vert
रतिबिम
colored
train@@
जूनियर
Deep
हवेली
pus
salary
SD@@
eval
arid
घे
भाई@@
objec@@
perpet@@
peasant
असमानता
१९७५
oman
Phoenix
टफ
baz@@
thirty-@@
बिड
Dharm@@
ope
www
PH@@
अथॅारि@@
ordinated
chal@@
haz@@
erable
gross
refers
निपट@@
ли@@
passports
Tulsidas
bration
जिमेदारी
ults
participants
अने@@
encountered
माई@@
harvest
HTTPS
lo
Uttarakhand
rey
rea
monkey
ogy
exploited
भरकर
fig@@
fab@@
जाँचक
bul
टेलर
compil@@
specification
Holy
आलेख@@
पाठशाला
wound
चाचा
पालतू
26th
smen
corrupted
Bhishma
राइयों
conversations
rish@@
modes
unicode
rath
Pic@@
चतर
गुन
डिरेक
inherent
defects
dissolved
Olympic
2.4
Smo@@
तट@@
इंटरनेशनल
सेप
promptly
ebr@@
उलझन
दूँगा
Scanning
भूखे
rain@@
iring
neighbourhood
रीति-@@
addressing
assistant
Bhagav@@
dare
खिंच@@
ava@@
origins
icating
cable
scan
परागत
गुम@@
ओजोन
Often
नवाब
alert
gently
Photo@@
सुनाना
textiles
352
flesh
बीतने
यित
ओल
असीम
seated
भाषित
wo
४.@@
abha@@
yag@@
छुपी
100,000
1226
asleep
auri
दऋरान
काटे
Stu@@
rul@@
आगत
yi
ify
Auxiliary
जानकार
generating
णियां
यवसा@@
gram@@
रूकावट
whit@@
yag
poultry
eal
onwards
rests
Rather
Dad@@
मिड@@
manag@@
झटके
धमा@@
revolu@@
दैवी
खरे
surrend@@
Gard@@
Akbar@@
participated
broadcast
gathering
rot@@
कारकों
गुलाबी
गानों
malformed
12th
ois
roughly
बैंकिंग
oram
मीठी
तब@@
asts
साहिब
ऎ@@
ounce
Gom@@
realisation
onym@@
Cub@@
3G
alid
एकेश
aters
बेचैनी
बहू
anchal
champ@@
थोडी
उलज
सहेजना
monkeys
किनी
माहिती
मणि
appeals
rani
खिलाडियों
अपमानजनक
पाँ@@
stopping
federation
सुग
Natural
मेंडेल
२५०
विवादास
मुकदमों
Inc
influences
रोष
Haridwar
नेवि@@
donor
respir@@
Anthony
साईट
sis
endants
inheritance
Car
Thakur
Success
Pyramids
निः@@
अनवरत
vas
बॉस
ऑफसेट
Ron@@
differenti@@
दीन-ए-इलाही
Neh@@
insp@@
दायां
कराए
Pack
pler
रदायों
abling
टा-@@
कृतज
भागे
riti
approve
hoping
reachable
chur@@
reluc@@
संतृप
रायोगिक
inscriptions
यामितीय
wire
मजदूरी
poured
graphics
लामवादियों
लॉग@@
Desai
mers
रहमान
7th
Nal@@
tel
थड
Aar@@
अशो@@
पहुँचाने
चेरी
Czech
convincing
शती
aon
जुडा
Samajwadi
सीडी-@@
particip@@
Hariv@@
ely@@
rence
बेचैन
solving
metaph@@
micros@@
पाएँ
resign
inspection
13-@@
सोसायटी
sperm
brood
rick@@
यायसंगत
magistrate
.In
ेती
estic
लूर
ात
mation
ria
060
पाथ
Determines
paragraphs
doctrine
nectar
mouth@@
institute
वारा@@
ठाणे
hOM
Bak@@
careers
Tasks
दुग
उथल-पुथल
रियम
injun@@
नवजात
El
full-time
मेहमान
aveda
emis@@
बाग@@
बडऋई
kindness
देसाई
Donald
सोफ
सोल
wed@@
शांति@@
Study
भौतिकी
जुलती
Adjustment
बेकायदा
हरि
Deh@@
River@@
उदास
G-@@
संपैत
Double
landed
Benefits
असीमित
काए
adhy@@
मरते
देशिक
पुराण@@
operators
पूंछ
जे.@@
undertake
मारों
hic
rix
intervals
मियां
eases
गारों
boycot@@
रायोजित
ओरे@@
cooking
populations
LA
Anderson
Guaran@@
advent@@
religi@@
beneficial
endeav@@
1973-74
own@@
अधिवक
Tag
टॉमब
concentrated
संपाद@@
गना
verified
jahan
पों@@
Shant@@
पुरो@@
Kuwait
Folders
replies
हटाए
Grav@@
elist
sieci
Market
eers
Resolution
toggle
uploaded
यूनिटी
Bam@@
malware
cate
दूँ
Karti@@
PI
ト
धं@@
रुवीय
blocking
गतिविधियां
खुलने
येय
जुटा
अमृत
Convention
hang
देशा@@
Five-Year
सूचि
Expected
hymns
metric
Os@@
लाजी
Kabhi
З@@
Afterwards
ंबा
हाइपर@@
सात@@
Viewer
अंशों
आयतों
moo@@
97@@
सामन
Parent
isha@@
बहाने
लगाएँ
resize
elim@@
embarr@@
survi@@
enforced
Wall@@
hearted
large-scale
King@@
rej@@
रांक
इंडोनेशिया
aids
थिति@@
जानकर
बची
पियों
communists
blood@@
cking
रतिभाशाली
रॉल@@
१५००
DSS
साधारणतया
चमकीलापन
Power@@
Path@@
Ble@@
Sis@@
खींचना
अनुरुप
ius
Adi@@
rebels
И@@
proph@@
icals
ऊं@@
atorial
approaches
Madrid
नाय@@
केला
जयशंकर
escence
attract
toxic
भटक
illiterate
चुस
thorough
itating
ror
cav@@
Speak
Chat@@
कडा
Author
रीकन
acute
sub
supervision
यका@@
Brightness
Ibrahim
demon
restraint
issu@@
Prayag
Based
शाश
निट
symp@@
वियत@@
requirement
environments
Toronto
गलियारे
ीज
alai
गणितज
शैलियों
circ@@
अँग
introducing
तिकरण
याचार
brut@@
छाई
rival
12.@@
चाल@@
ठहाके
archives
अपरिवर
तावना
preparing
teger
Jaish@@
cott@@
चलायें
माया@@
Om@@
दिखाये
रेती@@
जयललिता
kuta
jects
Gyan@@
Scor@@
Gorkha
crum@@
रामन
तहलका
कोलम
solely
सुनो
BUS
सुथ@@
Citizens
gres@@
anal@@
ृष
Except
Barack
promotion
RGB
pd@@
महेन
-पादन
तकनीकों
micro@@
रोसे@@
Hari
Jawahar
shaw
guarantees
trends
रमशः
ases
दलीय
कुमा@@
दंगों
बहाव
मोजिल
heading
sixties
straigh@@
emplo@@
बिग
proceeded
Frequ@@
exported
oom
पुकार
imm@@
fashi@@
समता
सीखी
cheaper
attle
rete
Incorrect
तुरन
Come
releas@@
severely
WHAT
धुंध@@
rel
Krishn@@
icts
vul@@
Pratap
दांतों
षधर
-या
आवृति
distinc@@
लियम
coding
enia
peasants
दुविधा
Sarat
Wacom
dim@@
tention
बेथ
actu@@
convic@@
1969-@@
कंप@@
connec@@
खिसकाने
झंडा
डालती
1906
1902
1903
कंधों
alter
oj@@
Ethiop@@
mono@@
batch
विवेका@@
Ukra@@
पेशावर
कुमारी
ORI@@
ेयर
बिं@@
मिले@@
Kathak
grap@@
typed
विन@@
resigned
Python
North-@@
memorable
Reduce
junk
239
prakara
su
चुनौतियों
फोटोग
Round
Nel@@
term@@
Duplicate
Ci@@
गारि@@
Water@@
posted
Progress
कोणीय
रूपांतरित
althy
Tap@@
तमिलनाड
exec@@
Bus@@
सविन
ऐश
रोताओं
theories
Soc@@
nets
Govind
Nagpur
गाइड
construc@@
luxury
atus
left-@@
संशय
Distance
Conversion
cut@@
jaringan
17-@@
encrypt
helpless
Wait
घों
monk
kin@@
lah@@
incar@@
mou@@
मोडेम
हुड
निवेदित
ry@@
lift
ate-@@
distinguish
vessel
phos@@
resi@@
१९९७
ache
collapsed
dull
1899
Aff@@
cellular
खने
milliseconds
acket
रिगे@@
रहिए
atical
yaa
Pap@@
यौगिक
diagnosis
commencement
overwhel@@
कारीगर
kies
षपात
नामे
drap@@
Searching
लगेंगे
unfortunate
Judiciary
TES
लटन
पहनते
Bhattacharya
एज
पो
max
अकाद@@
sensible
stanzas
Arch@@
Magni@@
बताएं
जुलूस
मानदंड
टेलि@@
Blu@@
sphere
Bron@@
Rab@@
para
goodwill
theft
rai
Map
अलगाव
BI@@
डऋआ
बरबाद
बाँट
alik
reserves
vachanas
भाषी
पैगम
bah@@
Meg@@
organis@@
hostility
हैज
elf
धतियों
छड
impartial
engineer
Pakist@@
tific@@
उपजाऊ
Aurangzeb
सिखने
pond
resort
Cos@@
shap@@
अनुवादक
फैलने
cigarette
नाभिकीय
रिए
instal@@
incomes
Samaj
असलियत
yle
संतों
narrative
Land
नौकरियों
लश
लद
lan@@
Hast@@
tactics
अभूतपूर
ku@@
धावा
Scroll
concepts
भव@@
मेले
धवृत
मम
rebellion
नारा@@
Patna
sala
30,000
करन
Qur@@
छपी
non-Muslims
टैंक
खजूर
uit
graduate
Kuraan
टोटेम
equity
लायें
mechan@@
Domain
गाते
12,000
Krish@@
Cath@@
balls
Kah@@
appoin@@
beneath
802.1@@
मशास
resear@@
ईसापूर
पाबंदी
bru@@
एपीजे
aipur
Around
नीरस
meas@@
stake
patriotic
Required
commission@@
marine
चिंटू
aeros@@
rah@@
elementary
.0@@
oratory
कुलीन
टीरियो
inqu@@
syncing
sponsored
SOCKS
लाइडर
ेंगी
तेरह
समझी
deliver@@
तूफान
पाँच@@
Dic@@
Sikkim
मंगल@@
विवादित
Fatima
गिरि@@
BI
-हें
समादेश
लूप
Banerjee
appan
Kil@@
asia
eves
Flip
भाष@@
सोचे@@
रबंध@@
महिमा
पाज
घिरे
नियो
lied
अनौपचारिक
शम
वानरों
मिलीं
prac@@
BU@@
णक
woo@@
यारा
SIM
तटस
erings
Bal
Teh@@
Tulsi
तकनी@@
यीं
Dil
Rhythmbox
Kud@@
मजबू@@
dah
warned
sett@@
CSS
Kaun
photographs
mes@@
Bin
इलि@@
weren
रौ
enties
rishn@@
Kenya
काय
five-@@
सीमंकी
blog
लवाद
TOTAL
repe@@
get@@
रारू@@
शिलालेख
Ast@@
रिकोण
घंटी
अंगुली
0.0
रकारिता
फलकों
नरसिंह
कैथोलिक
dent
समझो@@
Magistrates
deteri@@
Yorkshire
राजनीतिज
sr@@
अधिरचना
अनुभवी
नागार
gregate
विधिवत
L.
Repair
उमड
हटाकर
tempted
Roo@@
खेद
hav
पैडिंग
बैनर
तराई
बैठने
queue
सीना
troubled
128@@
byte
विषाक
Half
EP@@
kilometer
NAL
postal
ghter
ारो
सकूं
वंत
यड
फॉरवर
भारिक
blended
दुबई
Long@@
विनि@@
Inspec@@
mukh
कहू@@
terior
परम@@
नूर
विचर
Reserve
जमानत
संन
Tibet@@
Unic@@
मेज@@
वाला@@
ओ-@@
महाराव
usable
कारखाना
कारखाने
step@@
expertise
depl@@
tver@@
चूहे
Portugal
रतिपादन
सीड
grandson
locomo@@
plain@@
सोल@@
HSE
बंधों
बेवकूफ
noti@@
hav@@
Earlier
1854
haw@@
forcing
Entry
Pick
accomplished
दबाकर
lia
ires
डायल
wrapped
nes@@
आस-पास
density
dir@@
UR
लाइफ
जकड
डिट
Ray@@
aud
लिवर
रांड
fantastic
Secondly
Aborting
Zam@@
sagar
चेतन
चाहने
षु
dwarf
-ins
Chou@@
Bair@@
WS
काठमांडु
कौम
सामरिक
Incre@@
credentials
vertically
passionate
Vietnam
Behavior
fana@@
रिहाइश
सुलझा
डेंट
pred@@
pests
षीया
मेदारि@@
grains
uph@@
अपनाए
नेज
फंस
Stories
लाव
लात
stores
Ins@@
А@@
सफल@@
धारणा@@
guidelines
थॉमस
ऊं
न-स
405
Adding
एकाश
attractions
shortly
1800
संकरण
Et@@
रोशन
Stereo
Congres@@
वसू@@
धुन
याया@@
सोनी
संशोधनों
sus
adventure
chol@@
दलील
रजातियां
icon@@
advocate
CUPS
ऋति
FOR@@
Australian
subcontinent
clip
Grand@@
GStreamer
ell-@@
decent
scrutiny
यूस
जॉनी
अट
writ@@
cam@@
orney
हिंदू-@@
secularism
ठियों
mandatory
आईसीसी
dha
सुज
vel
Kali
water-@@
मिलाया
तराशे
agr@@
णकटिबंधीय
तावेजों
marriages
petroleum
indicating
URN
बहुता@@
Iran@@
Kyoto
abil@@
Manipur
hitting
मारियों
wrongly
bent
तिल
निकाली
mute
थानिक
Guinea
pursuit
celebration
मुंब@@
सजी
मेरि@@
thunder@@
Bond
Medic@@
notion
ाका
रसे
ऍस
accordingly
responding
डनी
जीनोट
आकाश@@
ulam
households
gas@@
13th
sugar@@
ratic
बाज@@
देशीय
वोपरि
mentally
विनय
निषिद
रपुर
ени@@
फंचने
Zथा
पियर
लाजिमी
शरणार
नॉट
८८@@
Fel@@
escaped
Gore
Len@@
ア@@
ece
Lama
जवाहर
शनल
Put
assent
रायन
बहुल
revenge
शाकाहारी
ix
इये
Critical
ernity
मिया@@
ee@@
अ-@@
das@@
mechanisms
App
gage
आरंभीकृत
neg@@
हटने
anatha
युगल
invariably
allowances
ider
सीटें
adver@@
घकालीन
tender
interfaces
दा-@@
बराक
Tools
Soor
MM@@
भूटान
wall@@
proportions
Aud@@
खयाल
deprived
Abbas@@
बैठकों
arises
कृति@@
ED@@
climb
ipping
भीम
Urban
bicy@@
परहेज
essly
fluctu@@
हवाले
आफिस
cord
census
Banaras
लाहौ@@
rites
महलों
impose
Slow
producers
arose
कों@@
Adv@@
Mog@@
दीवान-ए-@@
किसके
grandfather
Nigeria
धरा@@
slave
mineral
अछू@@
first-@@
रमेश
दना
gins
acing
depicted
ऋ.@@
साधार@@
rafts
literal
essive
dual
यानु@@
Ten
naming
ideological
program@@
चबू@@
वाया
अरसे
विधानमंडलों
Jinnah
विर
origin@@
लोस
damages
रियो@@
quiry
मुसल@@
कमीज
MPs
आपदा
Maya
ss
एनालॉग
instructed
idhi
Thai
mann
considers
Album
hotel
lahabad
रमुखता
एअर
heb
आरा@@
तुलनात
craw@@
वरकों
.g@@
Movie
हिब
मॉडलिंग
resting
Moz@@
Jamb@@
शनिवार
Turks
कवा@@
Chopra
एना@@
slip
rotation
Shat@@
ключ@@
lasted
zygo@@
अमीरात
हराया
leisure
जाह
काली@@
ista
जार@@
retreat
नाज
Removing
franch@@
ropolitan
Importance
Gandhi@@
पटना
दह
enabling
Schools
Eur@@
hall@@
spectacular
पाणिनि
लेनदेन
edit@@
खोजना
excuse
MS@@
hell
に@@
गुमराह
Chall@@
them@@
recalled
१९९६
ampur
फीट
manifest@@
Dwi@@
सवादी
विभा@@
bases
Popular
काबिल
एंटी@@
कोण@@
solitary
imperial
तेर
सगर
पीस
Mart@@
Down@@
OP@@
kie
magistrates
breathe
छिन
By@@
Problems
SHA@@
धांतिक
Б@@
all-India
caterpillars
personnel
crimin@@
कटक
abandon
Installation
Architecture
वाइड
apsidal
vani
facade
सूखी
chariot
दाग
privately
Coast
गोपनीयता
बदल@@
bull
इरा@@
Tari@@
adu
पहचाने
rang
submarine
समझौतों
ऑडेसिटी
केसरी
ंकार
hung
indirect
छज
शाप
clud@@
पृ.@@
tera
बीमारियां
सुमित
anjan
abled
रूख
tiger
cartoon
sary
alo
Hung@@
recovered
बिल@@
out-of-@@
Salem
रया@@
traveling
stic@@
Pack@@
privatisation
Occ@@
गेहूँ
wali
encouragement
मि.@@
लई
glo@@
scared
एलसीए
inadequate
temperatures
विधियाँ
Meas@@
Visible
esta
athers
hikesh
mang@@
Qazi
ownership
जगाने
000-@@
consol@@
मलयालम
बिठा@@
Fig@@
Alwar
closure
एलयंस
plea
manus@@
aran@@
Towards
surveillance
Anonymous
यवसायों
assess@@
sweet@@
चुनावी
Bharata
kne@@
ods
approaching
Bay@@
signals
सैली
Outside
opposing
partial
divid@@
टाई@@
Prevention
garage
icity
लिखिए
ंडी@@
लिग
Happ@@
रोकार
लाभांश
caves
exile
शारदा
fares
1901
फुटबॉल
सिकंदरा
degrad@@
Jas@@
angels
missionaries
परिमाण
heroes
रोही
Dash@@
गाल
गास
परास
आबंटित
धूसर
दासबाबू
cc
है.इस
उजा@@
नग
relate
सिखाने
निधी
Sarkar
-निर
newer
chat@@
nan
घूमता
oma@@
Wilson
Kangra
BA
URLs
dog@@
paras@@
१९८४
PB@@
Chec@@
दोहरे
chess
bub@@
पंजी@@
parsing
कामना
fearing
दीजिये
य-पूर
avoiding
ld@@
सुदृढ
designated
महोदय
cluster
काठमांडू
Week
Insp@@
ansa
publisher
कुँ@@
दुत
earing
depended
dividing
जनहित
incre@@
google
magnificent
dimin@@
autonomous
यादगार
sustain@@
यकला@@
sink
FO
षमताओं
ин@@
dad
जाग
Kaur@@
exceptional
सोश
पानीपत
पिया@@
Heav@@
angles
ior
Documents
एकिगा
chronic
claiming
कांगो
Devo@@
revival
ла@@
ras
सहभा@@
शिका@@
Gautam
Janak@@
रॉ
sustained
admiration
exist@@
Struc@@
Moving
Nur@@
suspend
Debian
मातृ@@
Similar
naked
काज
dupl@@
igs
domination
interact
unga
मरी@@
०.@@
अमूर
१९८२
पिरामिडों
unlimited
capitals
wished
lumin@@
तनीय
inclined
tas
Cour@@
सुंद@@
शनशास
पोट
boom
dialogs
-होंने
fia
parasites
Resources
veer
eshi@@
doubts
deal@@
loo@@
Baghdad
Ganesha
SIZE
सजावट
greatness
bour@@
नायकों
essors
pho@@
ॄ@@
Shukla
GI@@
sickness
रणीय
1984-85
surg@@
udev
सुलभ
टाए
िडेंशल
बहादुरशाह
Astro@@
aved
Haj
ँघ@@
Names
OT
सिटिज
unsafe
Jim
minerals
वैशम
Scientific
भंडारित
वहीन
मैने@@
Head@@
AIFF
concer@@
nursery
Sally
emblem
awab
awan
संकट@@
humble
ईराक
hash@@
Temper@@
CMS
माएं
सहार@@
रैगन
Modem
Legal
Norwegian
Hind@@
TA@@
Malaysia
larva
जाये@@
two-thirds
कियो
खोने
ढोरों
ंडन
asters
patriotism
घेर
उंग@@
costly
youngsters
टेलिफ
eep
दाबाद
far-@@
certainty
झं@@
तारीफ
ao@@
Chamber
Einstein
Gha@@
merchants
probe
faith@@
jer@@
ugly
Native
जिर
reflection
पराग
घटनाक
puran
विधाओं
apathy
goddesses
WK
Utt@@
रिवे@@
на@@
kms
ever-@@
expressions
Lad@@
Documentation
itar
maps
Imported
public@@
बाय@@
vadya
हाज
idable
पहुंचें
Delay
withdraw
विना@@
invite
cury
packing
हेडर
mobil@@
सराय
टमैंट
फंक
statues
cockro@@
scri@@
supplier
Chakra
हाथ@@
Panchay@@
Success@@
Convert
डमाइ@@
यभट
रेखाचित
unted
गिरतार
१२५@@
taries
गिज
axial
गिक
सियन
contrad@@
Rome
Battery
ñ@@
annum
युग@@
arium
eenth
सिरोही
Anti@@
lov@@
शहं@@
grasp
डॉट
Sush@@
á
Mast@@
मछु@@
रयी
नोटस
नौजवान
खुदा
वारंटी
कृत@@
apt
ओएस
chaos
acharya
नरे@@
हाउ@@
यूर
BEL
ó@@
complaining
laboratory
wasp
vain
blind@@
शास@@
Ж@@
proves
रोके
ilip
CT@@
atch
puzzles
compliance
Bhatt
Swiss
Toggles
छोटे-से
Deob@@
pist@@
मातृत
Kurukshetra
tioner
unciation
occupy
lem
रेजीमेंट
PAGE
शाने
इनर
injustice
authorised
G.@@
recre@@
Mantra
glance
excavations
nem@@
बलिदान
hilly
मंगो@@
ograph@@
Parsi
lag@@
Nu@@
तराल
embroid@@
Publishing
pounds
blank@@
Consid@@
shut@@
shop@@
जगन
confl@@
eaten
दरज
इंट
बाते
Above
aser
Integrated
टचपैड
02d
कलात
hadn
Jihad
टाइम@@
prescription
PPP
erve
extends
amaz@@
लोकेल
Eigh@@
discharged
loud
Rish@@
Georgia
गुणन
tribut@@
menubar
मानस-@@
Calcul@@
mented
pink
रूपण
geomet@@
Defaults
गिरा@@
та
GO@@
NUMBERONE
इग
संगठ@@
duck
best@@
अनिल
Schedule
यूनेस
Oriental
Liter@@
bec@@
uj@@
partially
Sym@@
पलट
mohan
Rain@@
complex@@
washed
isha
open-@@
Jahangir
पेशा
वयंसेवक
nu
हदीस
preceding
रोद
घटी
षसों
acca
convention
way@@
Sciences
pole
वय@@
राथमिक@@
दिव@@
चता
ectors
रदा@@
शूद
dres@@
xref
penalty
तूर
2.2
Mathura
public-@@
वायुमंडलीय
urai
calculation
सेव
75@@
phrases
Chet@@
डसन
ene@@
upwards
टअप
Tah@@
दनी
Imports
endant
परमहंस
diabetic
मेलनों
willingness
अनुकरण
debt
ellate
creed
रियाएँ
पिज
लिटी
som
SIG@@
वाभि@@
टोस
सीमाएं
कुएं
Thar
फासिस
तिहासिक
ecture
het
hen
rif@@
Iqbal
चौथा
मछ@@
अनिर
mahabhar@@
एकाएक
accepting
cardi@@
Pall@@
अंतहीन
uz
इंगलैंड
presided
षरित
racy
anxious
चिकर
daring
commodities
उदारता
SU@@
constra@@
orious
सीबीआइ
Mughals
preached
creates
calculated
Kad@@
Lipikaar
kala
indigo
constructive
erson
Fol@@
Bit@@
plat@@
wad
akshi
loyal
शाखा@@
perceived
-पट
incoming
commissioned
pick@@
कव@@
योज
योन
अगल
mons
eil
बिताया
Judges
hind@@
Refresh
nant
american
invasion
Alig@@
ordin@@
lot@@
slog@@
Sticky
antarala
उपलध
रशासित
TIONS
independently
zzle
suite
बिंब
inher@@
तांबे
acker
ऊंचा@@
Spelling
उदार@@
intentions
आलोचकों
jag@@
motive
tooltip
journal
रभुसत
eas
eric
TT@@
ignoring
पीउ
araja
लेटे
0x
तरं@@
Extended
Baj@@
कैल
eldest
boot@@
common@@
सूँघ@@
Fav@@
अनपढ
खरी
shake
दंगे
Conver@@
atics
Deva
रोधी
parental
izer
Newcastle
Tan@@
Cultural
aste
Words
सोचो
सोची
adesh
हतोत
formity
override
outr@@
aints
exploration
3F
birth@@
smog
mati
ाबाद
artic@@
cycles
vor@@
याण@@
यकीनी
यवाहियों
पाउ@@
mediate
Niz@@
entrances
decis@@
Czechoslovakia
Records
fluid
detection
decryp@@
Hong
docum@@
mortality
बुन
केश@@
obiography
ic-@@
indu@@
shade
Jat@@
Shir@@
Brasero
prestige
Birbal
wher@@
authenticated
confluence
мреж@@
adem@@
Nab@@
devotional
chand@@
geon
ommun@@
मिसाइल
itic
Def@@
लफ
classification
ivism
रामचंद
acquisition
Shri@@
roller
मिलनी
Tony
टकार
e-up
Bachhan
Meerut
Mani@@
antagon@@
भण
rou@@
Looking
stranger
ffed
Production
एकां@@
रतिपूर
trig@@
locking
ढि@@
retained
धृत
gcompris
एटर
Albert
ularly
अशुअर
Pollution
छपे
इतिहासकार
duplicate
Catholic
ester@@
Dubai
notebook
erate
kets
कालम
मधुमक
यूमर
desk
योतिष
झुका
डीन
eon
tangle
रेय@@
समकक
u-@@
ili
HTML5
कीबाइंडिंग
रकों
Property
पहुंची
रसंस
oxy@@
Tracks
अकसर
tl@@
ordination
aine
सिका
count@@
cared
NUMBERDEFAULT
Shut@@
याचि@@
जागरूकता
Skype
Hindu-@@
सुनाते
परंपरा@@
७.@@
wel@@
son@@
asion
जिनमे
undergo
Loksabha
Decrease
Users
राजनी@@
मंडली
निचे
मांगी
coarse
आकृतियों
FAQ
gregation
आकरे
practically
Majority
prejud@@
hid
ogue
आएगी
emerging
यमियों
winner
percep@@
मृग
LANGUAGE
characterised
करियर
Raman@@
extract
Nair
tolerance
मुज@@
Vijay@@
नियल
तड
Statusbar
Plugin
pious
dio
timacy
Stalin
mammo@@
टैस
कमजोरी
Organisation
हैम@@
गृह@@
meaningful
DD
दुख@@
̊
राजकुमारी
णि
नाटकों
forty
neighborhood
खाल
Joint
arteries
वकों
सांसदों
Poor
Suddenly
दिलों
जावास
निकटता
fran@@
मकानों
थगन
s.gov.uk
tox@@
hibited
१८८@@
टीव
सोड
CAL@@
सभागार
bye
ferences
sofa
एंग
जुलता
Aqu@@
dians
सरत
दबाए
Galaxy
contacted
जताने
वाव@@
खंडन
craft
Gates
uno@@
gifted
HC
Ho
बाउ@@
Geet@@
सोचे
पसीना
Ariel
DISTRIBU@@
Allow@@
गुंजाइश
अनुरो@@
Kong
hint
रवे@@
orate
disposed
ewing
finances
fond
Ji
hir
Pant
फो
फन
1861
1867
fulness
anny
केरी
गीतांजलि
inely
adjustment
metre
बैरिस
Bird
1.6
ingre@@
brush
illegally
273
टोल
सियां
disturbed
mosques
valu@@
variable
मले@@
ashtra
MD
MW
atan
खगोल@@
गोलियों
ayam@@
hostname
edges
Chil@@
टिवल
कमियां
preh@@
aders
कारन
smiling
conut
alaya
यारो@@
Had
rend@@
ापन
Mahabharath
जलने
a-pitha
von
इमेज
Om
emphas@@
OR
Din@@
वानुमान
insight
जमी@@
khand
gence
atin
Prabha@@
team@@
कोसी
DVD@@
जूद
filesystem
साझेदारी
Conc@@
एकरूपता
equals
बटु@@
king@@
षा-@@
जहाजरानी
अनुमोदन
यकालीन
Englishmen
draws
Dialog
essor
कांच
По@@
rush@@
ship@@
teaches
भती@@
सुविधाजनक
misusers
बाधा@@
text@@
यूजिक
earnest
पैकेट
drag@@
महापौर
horror
यमिक
liaison
Kargil
ंडक
minorities
Steve
सालाना
में-@@
injection
छतरियों
Lay@@
smiled
utilised
two@@
लाइज
Camera
वाशि@@
pulling
sentiments
वभौमिक
Drawing
timed
हाई@@
urs
gest
नाइज
operated
जरूरतों
मैग@@
विप@@
जवान
UT
beats
subordinate
Zइफर
repudi@@
bhak@@
रुज
रदय
Ye@@
cousin
disappear
Moder@@
elderly
fraction
Resolutions
disorders
भूषा
तेल@@
waist
Installed
नंदा
मापक
transl@@
nap
identifying
aith@@
480
mentions
Governments
किराए
ата
near-@@
SW@@
सता
horns
len@@
फंच@@
Osama
वादे
लाफ
1996-@@
उगा@@
Heaven
रतिबिंबित
नेपालमे
न-प
ं-
notific@@
Panj@@
Naj@@
URIs
नगरीय
supersti@@
tories
Burning
Čepek
सरोकार
Nicobarese
Travel
अलार
हीरो
यीअर
Imp@@
जरिये
Headers
ूंगा
counter-@@
ऎसे
तंजा@@
निति
Hasan
-इन
विषाणु
थीयों
Zionism
founding
एयरवेज
जटिल@@
वृहद
gang
winds
निद
1883
ambition
रिशूल
Constitu@@
हैं.यह
पणियाँ
pleased
litigation
हलके
तचिह
रालयों
conceived
incredibly
reconc@@
Hockey
wins
attracts
diction
collapse
हिंदु
predictable
sured
Williams
बाव@@
Poland
Framework
home-@@
नायड
Guar@@
४०००
प-अप
canvas
सुचार@@
restra@@
avan@@
Cairo
promp@@
schem@@
uhan
वथा
щ@@
threatening
फिस
determines
कानें
abolic
dhan
bu
wildlife
MEDIUM
Rend@@
देहांत
surely
nish
ador
Ib@@
घाती
crimes
glimp@@
rati@@
रसव
Tran@@
sends
युन
habha
तनु
गिरकर
occurr@@
anonymous
पतालों
inevitably
रेटों
не
यापकों
bian
012@@
conservative
aha@@
administered
कालांतर
yodhan
कैमिकल
referring
कोशिशें
वरा
descriptions
कृषि@@
डिंब
घुस
ech
राधि@@
overwhelming
कलिन
Wallet
कियाँ
गवा@@
Ages
immor@@
रभावकारी
शरत
Qaeda
टौ@@
नानी
org.@@
iland
comply
पॉडकास
assu@@
िवादी
ig
चलाये
character@@
suprem@@
वेदान
बलात
हेक
designer
समा
interference
Already
corporations
genotype
oil@@
fills
junior
tum
परवेज
पहुंचना
tionable
अनुभाग
Capacity
cooperative
डेक
dem
एल.@@
Officers
scattered
nervous
RT@@
fur
chim@@
चाहियें
punctu@@
जऋ-ऊण
bungal@@
ashamed
gnome@@
समझा@@
रभ
नुष
पनडुब
engers
सुपुर
Airways
igner
साइमन
Push@@
कुवैत
Dashar@@
झल
poorest
shining
mo
कुंजी@@
Medina
Chhat@@
शटल
368
Dance
precautions
पेशे
.ht@@
propos@@
एमएस
समाजिक
नाट@@
door@@
विजयनगर
Surya
Hidden
strictly
Analog
islam
Shakti
hap@@
Zee
arily
किलो@@
Everest
असहयोग
बुलियन
robust
ईरा@@
चुनौ@@
बेरोजगार
वाहा@@
reson@@
सेर
arious
Buying
बिगाड
infectious
Lah@@
अंगु@@
aracharya
WiMAX
पनीर
जसवंत
demonstrate
Less
panc@@
tonn@@
मसौदे
minimized
Mik@@
याल@@
हांला@@
रचारक
C-@@
गोवर
बिछा@@
एजेंसियों
ambig@@
बेरोजगारी
Gay@@
Knowledge
अंक@@
153
संस@@
pretend
beetle
k.@@
ञासा
Importing
Share
Multi-@@
Retrieving
ument
tight
tt
Analy@@
ary@@
jj@@
waves
risen
owners
demonstrations
achi@@
uncertain
eler
eager
nucle@@
ui
celebr@@
पुलि@@
consistently
Tatas
लीकरण
टित
सूजन
last@@
तंबू
सौम
बैठते
lung
controversial
चीफ
essness
Anna
Reply
विशालता
महेंद
बुखार
Tax@@
aner
जनमत
सोलर
graphic
cam
छुपे
रजातंत
विल@@
Milk
british
tragic
मतभेदों
ारसी
anarchy
लिखता
तलों
yl
alpur
मानसिकता
imprisoned
होली
मंडलों
stem
रवृति
.4
suits
भुट
शनीय
गोरि@@
win@@
Sind
एंट
हण
oric
Iv@@
गोबर
Cellular
Seventh
बिंदुओं
ghtly
stumps
Tai@@
wart
Origin
आतं@@
persuade
tionalism
बहते
कैट@@
unnecessary
horri@@
भवनों
potato
राजपूताना
छिद
FLAC
भंडारों
exhaus@@
вт@@
गौड
नीति@@
Shik@@
रॉयल
मज@@
करनें
grip
बताएँ
deed
emo@@
900
raft
टेरा
Bhagirathi
sils
fans
Cru@@
३२
prevention
रिटिकल
deliberately
foreigners
२००@@
विदेशियों
15,000
फारूक
छीन
डेलिगेट
रसो@@
इंडो@@
acceleration
थोडे
निगाह
Panchayat
abar
रेरणा@@
जाति@@
मिज
oming
अफसर
ऍफ
seas@@
Fetching
ele
टावर
45@@
छप
राफिक
महानगर
मनिर
फाल@@
मुझमें
अतं@@
Electric
downloads
reduces
Anil
tili@@
aly
डाप
Top@@
वेशन
к
रिच
qaa
conj@@
Metro
रेलगा@@
bag@@
8.
मशीनें
.c@@
Oops
रेख@@
ंगे.@@
runaways
गोलाकार
drying
टूलबार
मफ
distribute
Warren
ubhai
Seeing
performs
succe@@
लाम@@
पोतों
सोते
मलेशिया
रावस
MES
total@@
दखल
bond
बंगलूर
walks
new-@@
पंचायतों
ाराम
Aryabh@@
drives
Discard
IPCC
धनों
influential
cau@@
communications
nowhere
monast@@
लगायी
scor@@
रलैंड
अनुपयुक
fulfill
Ish@@
transparent
quiries
बीवी
Republican
Any@@
रियाय@@
धमंडप
झंडे
लिब
रेखीय
Standing
empha@@
Bhav@@
screening
insul@@
Gas
कानूनन
लालकिले
गतिरोध
maha@@
scores
तमैथुन
utra
sandstone
scaling
kand
मोत
discus@@
समेलन
Role
carp@@
tillery
खरीदे
रांग@@
Nai@@
Element
PGP
Hour
discre@@
राइम
Accel@@
sta
cleaned
एशियन
nar
neighbouring
gender
ठद
रियाकलाप
Addi@@
Jus@@
रामानन
punish
employee
हुमायुं
Recomm@@
विभि@@
GSM
ample
तोरण
हताशा
brick
मानवों
गौण
evel
९७
curiosity
downs
अनुलग
particles
mythological
अधी@@
तृ
औष@@
alty
flu
ulu
कलि@@
१९७७
१९७०
शख
DS
सप@@
छां@@
prasad
धोने
laughing
णस
expressing
manufactured
absor@@
Rog@@
Ramesh
Kunti
टह@@
लायर
ager
smallest
यीय
itar@@
सीसी
घृणित
must@@
pesticides
गारं@@
शीता@@
tunnel
spi@@
stepped
Obj@@
Developer
जाद
gather
Synchronization
मुनियम
ud-@@
ellip@@
receiver
engines
intim@@
हव
Narasimha
sever@@
GB
GL
B.C
BRE@@
11-@@
चाहत
Clear@@
खगोलशास
पांवों
लिफाफा
top-@@
डोम
chair@@
ssh
missions
उतारा
xing
योजनों
dispersion
FBI
अहंकार
Hश
prolonged
simplicity
तिलचट
relieved
seasons
वेबसाइटों
फुर
ateau
१९८१
१९८९
दीवानी
Conditions
NTP
tat
Variant
खामोशी
दय@@
एलेक
अॅा@@
Pixels
illu@@
dependence
fired
आयीं
पहनना
Notepad
परिणा@@
नाचार
ड-@@
रोकना
мережі
झार@@
वीक
दहन
नदियां
छुआ
VERSION
Mere
milli@@
craft@@
वरुण
Math@@
y-General
approxim@@
enjoys
उखाड
NR@@
घेरा
EMA@@
rejoin
IMA@@
Ashoka
सृजित
ओंकार
Sultanate
exten@@
Fig
ifying
सुपर
follower
Proverb
ographer
essays
अहम@@
forec@@
Hazarat
चिपका
Frank
readable
मुं@@
जायेंगी
छता
synchron@@
यायमूर
अधो@@
मकथा
टिहरी
PD
mom@@
Yog@@
oft
practise
compete
neighbours
सी.
चूड
enshr@@
Ralph
रतिकृति
येर
Oman
उपदेशों
electronic
assessed
अऑ@@
righ@@
यालों
रवों
worth@@
गायों
मंजिला
ताली
Displays
layers
aland
IMP@@
Form
cies
ERE
spreads
Shia
correspondence
हैरान
Wood@@
Tariff
transition
brains
Apps
brate
annually
रॉबिन
सामवेद
मॉन
मॉर
एफड
subscri@@
SP
उदारवादी
ेदार
ces
मांगा
pinn@@
Esther
placing
Subscri@@
Rush@@
रांकन
Bou@@
कहो
SCO@@
Distri@@
रैफिक
तरांचल
fluor@@
थागत
घनी
आकाशगंगा
शंघाई
Hoys@@
Accor@@
Panipat
Austr@@
Associ@@
लैटिन
aul
usive
मिरर
breath@@
रदीप
forgot
Contrast
ference
ettes
सममितीय
acquain@@
fitting
scienti@@
foc@@
ोतरी
जें
Swe@@
aska
Beep
माँगिए
लैम
निराकार
Wind@@
DSL
dit@@
South@@
markings
Manohar
Kus@@
declares
माइम
firewall
फोटो@@
advertis@@
year-olds
preserved
Training
business@@
Forces
धीर
ईसवी
हाद
गाथा
Jainism
माउ@@
ंं@@
Processing
तिनापुर
Mahavir
refin@@
subsidiary
crip@@
consulted
cooked
Sahara
presently
कूटों
.gov.uk
Bharti
पुनरुत
aked
TRAN@@
सय
पैमाना
Sor@@
eleg@@
Bish@@
िज
жел@@
ेकों
Kaus@@
prints
Chatter@@
शेष@@
agraha
पहचानना
मौलाना
Qa@@
anya
greeter
नीटर
sunlight
eject
som@@
बाने
uters
tensions
थितिकी
insist
ause
ocation
Bhutan
doses
एनकोडिंग
ऎसा
AK@@
शूटिंग
FHSA
समीकरण
grievances
Kandahar
Maharishi
मैनी
आरोह
22@@
̇
estic@@
Mir
1882
crowds
askar
GPU
ex-@@
रुटि@@
Appoin@@
nep@@
रेशे
wonders
beli@@
डकैती
XPM
Presidential
Prithviraj
Kshatri@@
arians
राजगुरु
Depending
tournament
तहसील
अमो@@
alter@@
creations
Socialism
surplus
xml
तराशा
Ze@@
civil@@
Alban@@
angel@@
crease
एजेन
धंधा
भलाई
छोटी-सी
accelerator
मनु
appreciation
YE@@
Advocate
रांतिकारियों
Against
Estim@@
नकारी
ैल
नियु@@
remem@@
merge
institu@@
नारे
drun@@
accep@@
खरीदी
तेहरान
defe@@
Remo@@
Sufi
poet@@
zes
tained
बारीकी
थकता
झां@@
dh
Navy
nesses
trick@@
Shastri
अपनाना
बरकरार
polity
सुकता
eive
धीरज
sth@@
pollin@@
ұ@@
227
ня
ане
visional
पिरामिड
EPA
hire
लकतंत
incl@@
chief@@
गैलापागोस
money@@
fines
finer
Father
जगा
जवानों
Fried@@
Zथे
Paras@@
वासित
रोगाणु
रूपए
reser@@
photograph
पटा@@
orbital
करीये
transaction
शनर
hs
wami
९-@@
Emir@@
अंधकार
सिध
अपाहिज
बिद
iz
Ramcharit@@
aband@@
veena
Chaudh@@
preaching
नगर@@
वादिष
Nabi
बादलों
Franklin
हीद
checks
custody
arth
अमी@@
डेढ
Typ@@
UP@@
जायज
ulture
paths
ारिश
less@@
eland
prepar@@
Speech
Mehta
Scott
केबल
isc@@
औपचारिकता
nests
finest
सलाह@@
tuous
proportion@@
ऑपरे@@
encounter
इनमे
bees
Follow
sanitary
यरी
resc@@
रेग
livelihood
मऋ-ऊण
रोप
substitute
Chitr@@
डरा
modernisation
hut
अवयवों
रती@@
साढ
Terror
oM
idden
CDs
screens
गुब
कडे
भृ@@
north-east
warnings
liam@@
2.3
Mum@@
3.0
बगावत
develops
.This
ilian
सेड
ईंटों
वारका
Fal@@
एंड@@
H.264
Re
qa
गायन
सोम@@
varam
capabilities
Thr@@
cult
रोने
ouse@@
Puri
netwerk
गिरतारी
मोहित
Uzbe@@
B.C.
Tokyo
लोप
bie
दरबारी
रणनीतिक
wrap
conferred
occurrence
दुरी
जटिलता
limbs
Sall@@
merit
विधियां
रवादियों
गुणित
Encrypt
tz
was@@
rooted
रैट
काटा
वारिस
समझती
systematic
hero@@
1850
भूरा
विग
अंगू@@
Greece
ायदा
रसीद
Wit@@
चैक
षतिग
cogn@@
deliberate
ुशी
adic
ologies
lef@@
लगाम
exercises
Dynamic
gable
scan@@
publicly
Cons@@
वरदान
कहूँगा
float
उपनिवे@@
rhythm
curse
टेल@@
रगड
prosecut@@
drove
nutrition
सुझावों
ऋए
mony
ṭ@@
भवतः
earning
enly
Kutch
आयें
isms
Singles
hierarchy
Athar@@
Babies
निकालते
नीतिगत
८१
अंडाणु
मिशेल
दशी
describing
Jug@@
आयेगा
1890
cribe
यम@@
re.@@
मौतें
वीरशैव
violation
सुरेन
phenomena
Anwar
uity
रंग-बिर@@
iCalendar
गानिस
poli@@
ayam
बहता
पांचवें
allahu
orph@@
countdown
Heritage
whis@@
महारानी
worshipped
affordable
माक
entive
bernate
गार@@
Khuran
USE
Bloc
compilation
Canal
readily
याद@@
ī@@
Robo@@
compounds
PROTO@@
burned
षार@@
दाब
3D
Dul@@
कारखानों
Irani
gateway
कंधे
सॉर
defective
khara
demon@@
abolished
नमी
मुसीबत
Saturday
यवादियों
गाडी
सूँघना
पंत
た
डेली
यै@@
रवासियों
Tabs
fee@@
Bei@@
restrict
भेजते
clip@@
कंद
sandhara
integr@@
appearing
obtaining
ruined
lld
छाया@@
Eff@@
vivid
मानती
सरकार@@
enings
सनल
reveal
आसीन
Shopping
GroupWise
blessing
olo@@
vener@@
ंख@@
एसडी
1965-66
टनी
jiha@@
उंगलियों
betra@@
वैबसाईट
nights
रमाणन
राचार
चटर
Jaswant
tenderness
यामिति
भोजना@@
maternal
136
रतिबन
जबर
रॉनिक
बागान
७५
ames
ト@@
गट
contributes
Quar@@
similarly
visu@@
टीफन
inaugur@@
टिश
diff
मप
ardha-mandapa
Iya
संचरण
Carbon
किस@@
flood
recomm@@
तचर
PARTITION
झों@@
divides
दील
अलक@@
ridiculous
बेचे
jumped
तगा@@
Princess
alphabe@@
ञातवास
जहर
यचकित
तुतः
रवृ@@
FROM
artistic
itment
धृष
foodgrains
हांग@@
ैर
stitutes
Listen
इसी@@
MR@@
courtyard
गुट@@
aesthetics
regim@@
undertaking
salaries
strong@@
चौबीस
Sain@@
eclipse
टिफिकेट
Optional
Arrow
पुनःप
oppose
extending
परिधान
して@@
runcommand@@
considerations
जागृत
जुबान
PLUGIN
फिरसे
लाभों
आदतों
Erase
ater@@
गाढ
Ninth
thas
tham
iding
Chro@@
free@@
ERROR@@
साना
trunk
साने
ega
निवेशकों
Lax@@
Islamism
tened
णिक
sket@@
ses@@
चाइना
puram
te-@@
apt-get
kabir
magnitude
attending
दुस@@
Johnny
networking
Hass@@
93@@
teleph@@
Whit@@
dging
रोटोकाल
inappropriate
हैते
ricul@@
५०००
potentially
interior
hij@@
mild
zo@@
rev@@
inputs
lac
नंब@@
DI
therapist
मृतक
124-@@
bhag@@
stretched
संपदा
इजरायली
24-@@
Validation
सरीज
ranges
बचाना
ीडबैक
टोरी
रियर
WIT@@
monks
फैलाव
grac@@
wing@@
सले
वि०
uram
होगे
उपसर
पसं@@
tow@@
आरामदायक
कौन-@@
रेटरी
transmitted
об@@
pig
apol@@
Jayalalitha
Fernandes
अॅाफिस
atically
दूरध
vou@@
Anyone
rao
टूनिस
isting
Room
attop@@
advances
HP
recei@@
अंतः@@
युम
मंडपों
neighbors
Maulana
सुधारक
navigation
गोडा
रमोद
advent
osh@@
हां@@
originates
rock@@
clauses
catastrophe
lations
Short
miniature
fertili@@
protects
Andam@@
अंतरा@@
Pin@@
akar
ark
unions
अभिकल
absur@@
tabl@@
scroll
परभक
ES@@
रनों
अधीक
six-@@
admir@@
remedi@@
छापने
दसवीं
लोरर
खटख@@
जमी
फारवर
माथे
सफोर
हंग@@
Logging
नट@@
आशावादी
murder@@
घोषणा@@
विता
saM@@
adapt
रभुता
कीमतें
लल@@
एँगे
esia
Vinod
ुर
beloved
teles@@
whoever
खुलकर
Git@@
MB
रेंड
बलूचिस
mango
Iraqis
-and-@@
वाकर
तवाहि@@
extant
एपि@@
बीजा@@
bran@@
Real
yoga
legislatures
नरेन
परोक
Screenshot
माधुर
Base
लाजपत
ати@@
agitation
उभार
Congressmen
opens
Consolidated
Pashup@@
deficiency
fundamentally
nowadays
दूं
doorway
Yu@@
ानून
बिखर
बगीचे
Military
Franc@@
Agar@@
workpermit@@
बारियों
trump@@
Destination
awat
glos@@
आरसी
Dalit
Elections
धिकारों
चतु@@
हाबाद
रदार
casu@@
Us@@
conservation
गंज
आदिवासियों
fasc@@
supplement
सीए
खार@@
512
यानुसार
साफ-@@
Off
दवाई
importantly
exploit
ор@@
glacier
REMINGTON
abji
intend
requiring
kut@@
कियो@@
sisters
कौन-सी
अनवर
eering
wai@@
SSID
झान
जुलई
arithme@@
एवरेस
डीएनए
orbis
socket
ecution
ф@@
63@@
वोक
होय@@
slide
bowlers
चींटियां
timer
उतारने
astonishing
Forget
यताएं
Establ@@
लीजिये
constitutes
demonstrated
langu@@
swap
दयालु
fear@@
Whereas
पेची@@
Vivek@@
answ@@
दरवा@@
आण
भोग
spher@@
यूरा
इश@@
deaf
ताम
लैट
undant
WikiProject
Answ@@
गपशप
nominal
शार@@
Arduino
erance
shocked
Kazakhstan
टैरिफ
achal
माइल
कौल
^
ір@@
ता-
एडवो@@
AG
Images
WW@@
छिपाएँ
itan
ओपन@@
Teacher
swelling
restaurant
aspir@@
जीवी
Christopher
अपनाई
superiority
उतरे
rupad
पराओं
che
defendant
cease-fire
Majoris
बेनि@@
arashtra
आति@@
मणिपुर
dispar@@
MAN@@
कबी@@
exceeded
anthropol@@
शंख
मंगलम
बुलाते
laim
traditionally
ऐं@@
वालोकन
pling
erated
उभरने
Sindhi
Rajan
खानपान
fit@@
Color@@
शियम
पुतली
गुफाएं
डराव@@
पॉइंट
odhana
घाटा
rg@@
लाइन@@
irrespective
delhi
tower
लिडे
ABTA
तीश
आंसू
helpl@@
instinc@@
transi@@
एसोसिए@@
exed
phate
गिट
Cotton
पुकार@@
incognito
ried
partitioning
२८@@
beauti@@
loyalty
शाल
1880
एनीमेशन
Pav@@
गिरि
oul
twal
TV@@
crude
right-@@
Mendel
Lajpat
IES
ringing
disagree
AITO
दिरा
tying
agiri
prisingly
तसवीरें
बोलें
Bram@@
Pit@@
Bes@@
बर-@@
जाली
गुलामी
road@@
chill
tops
Length
sniffed
cum@@
पीडित
दिखे
देंगी
prospect
बले
dives
यें-से-@@
Mes@@
Benjamin
धाराएं
रूपान
alien@@
छानुसार
Ambedkar
Florida
गुजरे
Kashi
यूनिक
Bhutto
hec@@
केय
केच
देल@@
firms
नागपुर
नीकृत
intellectuals
दू-@@
Chaluk@@
exchanged
generous
pin@@
Shrav@@
दीश
Marxist
incorporated
Side
सली@@
d.
unting
passive
युध
वदेश
thful
purity
Playback
नामांकित
Philosoph@@
geography
सूख
खोई
अनभिज
embrace
दयाल
मंगोल
नर-जनरल
Ful@@
builders
coverage
मुसीब@@
सलिट@@
sugg@@
पुरू@@
sacrificed
gloves
modification
धिकारी
submission
rub
Lion
अके@@
aris
9th
बंदियों
इंतजाम
ऐल.@@
NULL
sooner
ho
balcony
rescue
recessive
Chamb@@
है.वह
Milan
चाहूंगी
Issu@@
टीपी
समानांतर
modeling
80,000
१९३२
answering
metrical
बेट
skip
लासा
rigid
escap@@
तबा@@
immed
कुओं
aspirations
Reser@@
hushan
tus
litres
रतों
सुगठित
VAL@@
रमे@@
hybrid
Sanj@@
रचारकों
extinction
dee
Hus@@
єдн@@
राजमहल
rowed
Communications
string@@
Siber@@
सगुण
shutdown
सूचियाँ
मही@@
те
English@@
डेशन
sme@@
मांसपेशियों
अपघात
schol@@
miserable
मकर
implementing
synced
assure
SY@@
बंधे
भरकम
Baluch@@
टोपाध
Questions
Chile
variation
झक
सगे@@
enum@@
teen@@
auction
Holi
षदों
रचे
Fullscreen
inspire
outgoing
satis@@
lenses
अगुआई
नीयता
रैम
दायर
orted
esel
कुटु@@
जेरूसलम
झुक
sources.@@
मैड
Shang@@
prastara
बांटा
og
curve
समान@@
where@@
तून
fall@@
जनात
consciously
रंजन
छोडकर
abilities
अबुल
सबकी
Making
साही
CBI
musician
1980s
तेश
सेब
syndro@@
पहुँचाया
feared
aar@@
पिंड
पिताजी
apuram
Islamabad
कीमती
टोरेज
opponents
सीसा
wells
yssey
dots
Glo@@
पढा
य-धारा
Few
Hindutva
238
1998-99
torn
इंट@@
आईपी
१९४२
aroused
mani
aluminium
अहा@@
chari@@
रियाकलापों
handsome
Silence
subtitles
एसी
काव@@
potent
वनियों
माबाद
घुमाएँ
इंडेक
fixing
रदु@@
रॉलिंग
बडऋए
संविधा@@
लोतन
खोर
Chidambaram
vy
industrialisation
isher
rightly
Devnagari
sincer@@
taxpay@@
टॉप
sheltered
triumph@@
CDMA
absent
नाह
iTrans
irony
वंशी
साधारण@@
typically
Experim@@
LEVEL
Burmese
Pictures
territorial
लंब
सरं@@
suited
fiscal
एक-एक
कवच
khar
कुलर
विवरण@@
१९९२
Chambal
VKDB
1897
dhana
-व
Body
cricketer
acked
pix@@
mileage
moths
Al-Qaeda
लाउ@@
quotation
गणक
वी.@@
है.इसका
sust@@
पारा
Nepalese
enta
ラ@@
lungs
faults
पीए
ecraft
niches
लेटा
Yam@@
पतला
Attachment
kit
थस
भाषाई
kidn@@
etha
excellence
Coke
नोर
affor@@
समकालिक
रलेख
लौह
वेजि@@
धाई
राइटर
Lon@@
बाधाएं
strikes
वरना
moul@@
धेरी
itabh
Meaning
लियो
Youth
दौलत
Mathem@@
uggl@@
superficial
ornaments
discarded
brushing
दाह
यपालक
दाज
dread@@
वभर
monoxide
institutional
जैसे-जैसे
Bhoj@@
Coff@@
GAL
abai
ady
establ@@
Terrorist
लिहाजा
खर@@
Juli@@
Matsya
गुफाओं
forum
परं@@
л
yani
दो-तिहाई
Pir@@
ँसी
portal
chitis
ninet@@
महंत
-8@@
iden@@
Exec@@
चाँदी
छर
corn
Said
handler
autumn
आन@@
gtk
जेने@@
vow@@
light@@
efflu@@
chaeological
मूसा
Kinn@@
refusal
Physical
inflation
atist
util@@
stasy
21@@
खोया
मनोदशा
फिन
नवयुवक
हथकरघा
Updates
stating
एमएल
Ogg
लियोनार
राहिम
वायुमंडल
abuse
सूफी
Merced@@
luc@@
Ratna
isolation
dle
viously
Shil@@
Inspector
धूम@@
Following
कठि@@
lime
heri
ायर@@
जयं@@
वै
निराला
pois@@
Sets
enders
स.@@
gressive
बैन
अयोग
एअर@@
frigh@@
seri@@
मं
awak@@
ishek
interrup@@
कोडर
Presiding
Absol@@
तेलुगू
नायडू
umentation
insurgency
compelled
dients
भे
भू
भस
suppressed
बगीचों
तशिल
noon
छपा
esteem
pedia
adjust
Cape
ollen
राउसर
embassy
clamation
hug@@
ISSU@@
full@@
garbage
Feedback
वासु@@
Пока@@
वांग
air-@@
नमेंट
ror@@
मारना
voyage
06
.इस
काकर
महानतम
vacc@@
ither
lai
Gaj@@
लाभ@@
जानकार@@
nik
Memorial
fusion
repository
Principles
Arbitration
Guidance
spind@@
landing
कुंड
तयों
carer
oded
रीदना
पहुं@@
navar@@
दाँ@@
rements
north-@@
महापालिका
डेवल@@
बताकर
authorization
surr@@
wear@@
keepers
alongside
flights
टकरा@@
proto@@
रवासित
therap@@
dfes.gsi.gov.uk
Apollo
माध@@
मानत
yel@@
princely
1978-@@
एलन
Wednesday
रवात
ठल
Imag@@
गूंज
stereo
धो
scrolling
Oxford
दिलीप
रेणियाँ
Prem@@
चिस
capitalist
उदात
chiat@@
anxiety
Catering
.यह
CL
चलिये
लाइसे@@
super
तश
Solvents
तकियाः
abnormal
istoc@@
तबाह
पोलैंड
cripts
Sure
decisive
Dus@@
Van
सीएन@@
Synchron@@
रिदमबॉक
Zहै
abhacharya
oke
पर-@@
Problem
skelet@@
vind
11th
unsuccessful
hit@@
यासन
Malayalam
काउंट
dragging
sins
determining
चलाती
एंटरप
जऋऋ@@
कठिनाइ@@
Marcus
lation
Mayor
brand
Pensions
aggra@@
विव@@
Devices
Specifies
वतमाला
Brahmans
सहम@@
जीव-@@
शरीफ
फीति
adul@@
manu@@
हुमा@@
बेरिया
restrial
not@@
Ster@@
नवरात
Citizen
seud@@
काग
राइफल
पादकों
Қ@@
उपल@@
सिंह@@
Good@@
यवधान
वैप
matic
ducing
fibres
Tim
Andre@@
rie
बरो
महासाग@@
शाका@@
लेव
गमभन
Unlock
elia
डूबा
बनाओ
1.8
chicken
dhra
hand-@@
Lala
provo@@
Drug
Recording
बैंगनी
111
चूल
climbed
Li
आञा
अभिभाषण
fil
अनुदानों
Borod@@
जिदों
ocity
í
vill@@
Rig
Chron@@
समझें
firm@@
झुंड
Smar@@
पनियों
नाली
संपीड
विचारक
Nyquist
Michigan
utable
tika
Rej@@
vaccines
motives
sums
वेंट
तरूण
Lady
Pitch
Fix
pple
मावली
कमजो@@
बॉं@@
सूचियों
यव
Brun@@
कदा
आरोहित
indifference
आवशऋ-ऊण
सुखदेव
रोनरी
aple
लागु
चिंता@@
jaa
produc@@
ка@@
rus@@
Alex@@
Regular
Scro@@
Filename
wed
tice
सावधा@@
अपने-अपने
सिब
हॉर
खऋ@@
eloqu@@
barrier
phon@@
ँा@@
एचटीएमएल
Jackson
proofing
hir@@
रियात
देवी-देवता
hana
ハ
भौतिक@@
reproductive
tribunals
Ford
Jeff@@
काठ@@
सोचि@@
नाइजीरिया
गृहीत
कोमलता
कॉमिक
Better
Launcher
हैं.वे
मॉल
Ellora
advertising
सेवानिवृत
MOUNT
नितांत
राड
inno@@
aired
ाएं
मीदवारों
जेंटीना
league
settlements
हॅ@@
informal
Psy@@
ponds
ure@@
ancestors
सबस
गिंग
ONNAME
formally
visibility
recession
talas
regar@@
Statistics
वांग@@
gment
ordinarily
घनत
inherited
sniff
बैट
याह@@
डिन
रतिबंधों
Russians
guests
crew
mands
agra
जादूगर
रुस
रुड
रुत
Sanctuary
Swit@@
Hos@@
civilised
अतएव
agon
मोबा@@
रभाव@@
किलों
bol
ogene@@
manifesto
१९४७
यौरा
comings
भावना@@
शलभ
राजनेता
outdoor
fant@@
maxim@@
rested
Buddhists
Vijayanagar
सरह@@
recall
पुरे
BY@@
मिनस
मुकर
keybindings
Approxim@@
चड
blance
हात
restaurants
weaving
geria
exual
ductory
Mary@@
OE@@
नेर
Denmark
tombs
दिनी
वागतकर
एंटि@@
44.@@
Driver
Extract
PEPPER
Robin
र-राज
रिऋ@@
home@@
सुवर
लाश
tense
Week@@
thick@@
dresses
दीवा@@
preventive
CHILDREN
Sunil
अलीगढ
पादप
मेमने
वंशानुगत
arbitrary
शियर
गोंद
सियत
Hiz@@
टीचर
Zक
कमला
dumb
दांव
taj@@
नीचा
आखरी
as-@@
डॉन
dairy
eminent
सिमुलेशन
Immediately
mire
तीक
ordinance
पॉट
balloon
जने
interviews
guisubmenu
lone
छतें
ment-@@
rally
चाओं
explore
submerged
ape
struggles
Probab@@
आयु@@
.He
गेश
hosts
cake
PLAY
succession
षै@@
खेमे
ीर
औपनिवेशिक
वाडा
हत@@
टे-@@
Yag@@
Author@@
proven
Tablet
Gam@@
Hyper@@
मिथक
аж@@
संधार
neu@@
फिंगरप
दीकी
नौज
2001-@@
ation-@@
ashk@@
नालों
underline
249
उलझ
dressing
हराने
Malformed
sender
torious
IPA
transmission
eget@@
फिब
चांदनी
रांति@@
moth
disturb@@
Janata
Marx@@
defines
ц@@
सीरियल
लोकहित
कमी@@
Request
MESSAGE
thirteen
oblong
competence
ignorance
Pier@@
सिफारिशें
MPE@@
चलाकर
adjust@@
codecs
Chal@@
zer
strangers
plas@@
Tag@@
माओ@@
vigorous
ype
Jack@@
पलाइन
com
Electricity
रावधानों
27th
arak
theirs
कथाएं
पीढियों
पुरातनतम
डना
domes
राजन@@
दंत
floating
महेश
बढा@@
momentum
heated
siders
escal@@
conscience
exclude
yak@@
Fu@@
Delta
चूने
overweight
दको@@
exceeding
पूंजीवाद
accountability
ceremonies
लिसिटर
रामिंग
isodes
incis@@
ियन
drops
Guj@@
परता
थितियाँ
बंदूक
absorb
Debug
मुखाग
सीमांत
enrich@@
Items
compens@@
अधूरा
लेटने
Amazon
विशेषण
बिच
springs
निका
Duration
femin@@
Draft
टाँ@@
temper
लह@@
हेड
outline
16,000
venture
spar@@
Articles
ordinates
सरसों
अलीरजी
jo
संजो@@
CERTIFICATENAME
छोटी-@@
फाईल
clam@@
छूने
मुयालय
importing
opacity
वाई@@
good-@@
ोसियों
faculty
deshow
छाँ@@
interactive
Virginia
सांत
सांथ
ku
.dll
सता@@
जनसँख
creativity
सुनी@@
pared
prevail
SMP
arranging
afi
बेंजामिन
shoo@@
rung
ladi@@
टका
virt
Phase
incere
draught
यौढ
sement
जाऊं
teous
algorithms
डरते
कटु
Embassy
Giri@@
वेदा@@
३४
नरम@@
Per
eav@@
viruses
Busy
keyseq
clubs
chlor@@
ञप
भत-@@
ऊतकों
मैथि@@
इला
षिणपंथी
बेग
adequately
Peshawar
surveys
north-west
आकॄति
ढूँढने
Events
acking
converts
ench@@
devoid
vious
निषे@@
ilae
Lef@@
फाउंडेशन
thal@@
लीकृत
nepal
ón
junction
माक@@
ade-@@
Shad@@
cand@@
instruction
hoomi
achers
ठंडे
गीत@@
ANT
मोहन@@
बंधनों
दने
entious
opol@@
vegetation
पिटल
Shut
Failure
टाय@@
उठाई
साज-@@
hunters
सीटी
fishing
गाली
रजातांत
contam@@
Electronics
रोना
रिमोट
rejo@@
comment@@
Chat
मिठ@@
विकिस
hotra
होशि@@
गोवा
subsidy
..@@
पढे
Thane
raises
sow
negotiations
Francisco
237
Ky@@
patronage
सिलि@@
Array
कौनसी
इम@@
Carol@@
सजा@@
calligraphy
join@@
JPEG
HANDLER
hey
नुमाइं@@
ठाकरे
Grou@@
grasshoppers
Ross
रखाव
वालियर
रामाणिक
णुता
आकार@@
champion
असंख
icitly
licence
मोल@@
धुएं
Plain
ताइ@@
अधिनियमों
चिकन
टेलिविज
dock
IPv@@
रेंज
story@@
मैं@@
1648
नोट@@
भूगोल@@
Visual
रथाओं
अधिलेखित
scenes
Tand@@
ATION
umental
परिचारि@@
aksha
SW1@@
रिअर
Suspend
acti@@
enacted
Graph@@
obligation
entrusted
योक
Leeds
interv@@
सुचना
Insufficient
abs@@
कराहट
विरल
sday
चेक@@
अलेही
कणों
negligible
ffs
ENGIN@@
chem@@
1913
अतुल
dams
lacking
Accessibility
cross@@
ढा
reservation
Village
shaking
कपिल
rash
humane
here@@
itley
सुनील
vida
उत@@
Stell@@
Chandras@@
७८
piec@@
अनियमित
govern
mium
adopting
mistak@@
जानबूझकर
Mythology
पीपल
arities
navy
यशील
नमु@@
fascinating
04
versed
Drop
सोचकर
diabetics
छायाचित
Andrew
itative
कमियों
ayi
reviews
सबर
नोत
for-@@
cheese
संपुष
ony@@
कीचड
रतिपादित
सालो
लें@@
भूकम
1580
रोमांच
arbitr@@
tern@@
asty
Vihar
Dil@@
Holid@@
Jharkhand
वतः@@
magni@@
-थान
dances
gent
पिड@@
amps
acknowle@@
martial
सेएकेर
वेद-
वरवाद
user-@@
spacing
Afgh@@
बुलाने
Inst@@
ऋससे
छेदक
माता-पिताओं
mate
Caribbean
Prof@@
अऑफिस
untou@@
रृंगार
रपट
fabulous
जि
complexity
rank
rant
Surin@@
hot@@
पैरा@@
Saran
criticized
trou@@
Budgeting
बाणों
-वर
invaded
dried
मिडवाईफ
Trinamool
Min
Customize
MiB
NGOs
षिणा
avati
synchronize
आईपीसीसी
थामा
पिका
corridors
bricks
डायरी
Together
Oak
मपुर
Manu@@
-विचार
pts
GIF
Whe@@
glad
Phar@@
Icel@@
profitable
mach@@
1-8@@
शीत
Enron
डैनियल
130
Gamb@@
pharmacist
clash
पेंटिंग
फायरफाक
Gwalior
विलो@@
i.e.
रेन@@
look@@
यिका
05@@
Vag@@
List@@
const@@
ipo@@
कोत
बांट
फेल
सैम
absorbed
Atmos@@
टिफ
चैनलों
Deg@@
Assessment
Sukhdev
ऊंटों
नारों
तेलुगु
pris@@
Pope
Saturn
चलाऊ
kav@@
graph@@
borrow
spare
machin@@
रदायिकता
intimate
ययनों
इनलाइन
कृषकों
mice
replaceable
चंबा
vil
Pyaar
संबंधियों
रेखाएं
घटनाएँ
एजें@@
कारीगरों
Armen@@
पॅ@@
करने@@
मी-@@
creator
meg@@
बुझा@@
Auto-@@
Pact
सदृश
usts
illustrated
हैंड
ody
विकी@@
कला-@@
ठहरा
destroying
अभयारण
Translate
टुड
रीमियम
UND
Prot@@
Christ
जेट
listen@@
Nil@@
Wolfram
टटो@@
crete
delegate
нов@@
insult
insula
Abh@@
ambulance
Eye
Pervez
Manch@@
Uganda
Going
बटो@@
पडो@@
fitted
षेपास
lahi
हैंडलर
eman@@
Matches
DB
कामयाबी
मंशा
Kol@@
रियण
झक@@
cycling
stim@@
ापे
अपनाते
resent@@
skir@@
किरीट
डिबगिंग
arshan
मिटायें
दवाइयों
CCI
endang@@
सहकर
reed
Twitter
रेलियाई
Ah
sah@@
Created
bureaucracy
Muz@@
निवेशक
दानी
princess
frustration
कौंसि@@
awi
heart@@
Choos@@
वसूली
लूम
envisaged
Vide@@
cough
responsive
uncom@@
lyrics
Polic@@
CH
Building
genotypes
वेधशाला
SL@@
Voluntary
hub@@
influ@@
thani
वाहवाही
१९७३
Fed@@
stupid
बेटियों
innovations
फूर
intest@@
pat
harsh
एजूकेशन
Kaz@@
भावस
carto@@
Whole
राजदूत
लिटरेसि
ञानियों
EA
Sac@@
gotten
Savings
nings
ク
untu@@
pharmac@@
hoped
दो-दो
ठतम
MD5
संबंध@@
नाराजगी
लगो@@
demonstration
फेरी
तुझे
डीडी@@
Various
२००९
Nicol@@
फिलिस
capac@@
GE
rist
asser
जरु@@
manip@@
तगत
cep@@
raw@@
निवारण
हरण
छोटा-सा
senti@@
lax@@
cape
दायरा
तीसगढ
पके
Secure
रकोष
भुवन
theism
hygi@@
कृतियाँ
फेरबदल
deva
गऋ@@
poisoning
उदहारण
रिलिक
पुजारी
टमैन
unsatisfactory
tang@@
बांसुरी
गिने
ond@@
VALUE
Monsoon
igh
attitudes
challenging
Thous@@
जोखा
harmless
erator
पहुंचाया
Jr
formatted
adoption
अभिलक
जानकीनाथ
तकु@@
बरह
बरम
Paul@@
tap
taj
चिंग@@
ya-@@
asan
घूर
operational
सीटों
entic
libvirt
ARD
plun@@
Temporary
रेजी-हिन
IBus
बम@@
assing
kam@@
antum
अरविन
rick
नईऋ
Sirohi
सॉकेट
portrayed
hay
सैल
बायीं
रीद
abst@@
osk
Lत
Lankan
Yellow
नीतियाँ
neglect
wandering
fes@@
चीकारी
फुसफु@@
पायर
uded
pir@@
तराधिकार
rush
monopoly
सकूँ
civilizations
विचारा@@
दुइनो
colleague
बीबी
zam@@
धुंधला
Cars
भेदन
उपनिवेश
petitions
Madan
etta
वनवास
60-@@
Roosevelt
diar@@
Vikram@@
थंब@@
prises
conclude
thu@@
जूझ
ме@@
प-रेणु
Rabindra
searches
twork
कुंड@@
हॉं
रतिकार
उपकरण@@
Encrypted
illustrate
portraits
Gallery
खेर
विकट
-प@@
animations
मिटाएं
come-@@
संकुचन
tments
gum
gus
मीरा@@
हिलाने
Sheep
RA
yeah
आयो@@
घटनायें
elers
बीर
bot@@
Woman
तबके
amino
taxi
Patient
instruc@@
Si
पुनरा@@
arti@@
terrain
राच
defaults
तैय@@
येगी
Puer@@
चिदम
ंडो
interim
रिहाइशी
खांड@@
leys
लीस
TERMS
eet
जनित
Taylor
acceler@@
osci@@
र-पार
तरता
सुहा@@
Indore
संविदा
maximized
यूपोर
ultan
बैठा@@
izontally
fores@@
Sent
odh@@
interfere
replying
बैस
Siddhartha
टालिन
daco@@
जापानियों
घटती
Geneva
void
रांट
बालिका
चूहों
Narayana
680
Scot@@
SSP
Alehi
breathed
संसऋ-ऊण
लीनता
imperi@@
quali@@
aneous
investments
analyst
one-third
लैस
cham@@
षट
hem@@
Anj@@
आपमें
ालने
अथॉ@@
षारत
ить
hik@@
दोहराएँ
restarted
Queens@@
Ramanand
नापन
रामेश
सनकी
cill@@
Jhansi
nav
Kabeer
workspaces
मालि@@
Laptop
LIN@@
बीजों
डली
Jim@@
Khur@@
mandapam
Yudhish@@
Provisional
गोली@@
निराशाजनक
cated
assisted
lun@@
rehabilitation
vulner@@
तुर@@
backwards
sto@@
7NB
ageous
Tanzania
fixes
िसर
यंतरण
hail
discretion
अधिकता
पारा@@
शंस
Fortunately
naik
anpur
नानुसार
परी
Tas@@
Prov@@
जवानी
immigrants
screensaver
screen@@
penance
continually
Spencer
Bains
रात@@
shorth@@
distr@@
ushed
elo@@
comprehen@@
Ground
बासियों
िकल
yug
raja
tiya
रेंडर
Annual
predicted
नजरिया
अलास
कार-@@
artisans
paddy
ros
yaw@@
Democrats
चांदी
रामचरितमानस
हानिकर
बटुआ
gains
cd@@
मांगने
युदंड
wah@@
नैनी@@
खींचे
refuses
टाईप
posters
dragged
रिटि@@
mainstream
follow@@
It@@
झोऊ
Jains
gles
Ibn
Unique
tway
teenagers
Woo@@
за
मांगें
भय@@
targeted
LCA
टिकाऊ
पण@@
discour@@
txt
Viv@@
independ@@
अदन
वाचक
sniff@@
athon
Simplified
financially
LS23
नायर
Krishna-@@
Unavailable
Participation
educate
बुं@@
अरावली
honey
डल@@
teries
revised
invest@@
L.K
तम@@
cia
Kno@@
Bible
alchem@@
अलगा@@
remin@@
addi@@
Win@@
vocabulary
मिद
रभारी
हमलों
Found
केZ
Viol@@
अदायगी
checkbox
propose
Presid@@
morph@@
catalogues
Atomic
ओसामा
outward
hollow
filth
ad-@@
रतिवादी
SW1P
Rifles
efficiently
Secretariat
CF@@
गोविंद
हावी
रमंडप
नाकर
ehol@@
वंय
Reject
tility
रोमा
Actor
ाई@@
ai-@@
wak@@
अनार
-RSB-
Changing
kilomet@@
imagin@@
विनियमन
notions
ia@@
कोला
पितृ@@
tian
subtle
bother
हनों
लेनिन
physician
Ox@@
Mub@@
आँकडे
लौजी
protective
अंतःस
टनर
ekh
शाखाएँ
चाइ@@
तायें
worship@@
therby
निकटवर
comprises
angel
विनायक
सूज
seekers
कोर@@
दंडित
गी.@@
चूजों
Right-@@
पहुँचते
unpleasant
spontaneous
fo
87@@
dirt
detr.gov.uk
1870
इसऋ-ऊण
blend
मेस
मुखा@@
sacrifices
तऋर
मिशन@@
crack
praying
नियामक
Fate@@
Panini
gy
पूरब
arches
सिलसिले
Mata
रसू@@
boar@@
संदे@@
releasing
Dragon
Cyprus
gov@@
Extrac@@
canc@@
Shal@@
therein
सुर@@
FEW
carriage
antry
interpret
चाहेगा
judg@@
push@@
inhabited
मृतियों
U.S
polio
Stupa
unemployed
संके@@
खिला
सहदेव
folded
judged
ethical
इया
अवनद
fore
विधायक
prem@@
travels
reci@@
बिट@@
publ@@
हेस
ス@@
बदौलत
हटना
drain
Yajurveda
uri@@
कूटनीति
suburban
ganj
vali
Nis@@
power-@@
immer@@
Ghar
ocolate
kot
pras@@
batten
बिताते
कूर
निकट@@
assignment
chemistry
पांड@@
Defense
विएत@@
तिल@@
Sikandar
इलाका
लेबाजों
केटिंग
अनजाने
shuttle
fix@@
frat@@
टक@@
इंजीनियरी
आउटलुक
inspec@@
pupil
खम
147@@
Let@@
epi@@
Hold
आशीर
regulate
dru@@
ruins
nut
शत@@
DD@@
साझे@@
जनतंत
smar@@
Gabriel
दयनीय
milk-@@
निरूपण
bli@@
embodied
रिमंड
broadly
Bruce
carc@@
अभिघृती
बें
innumerable
बेचा
632
मैग
Jobs
रवी
ताकतें
सातवें
Mission@@
oa
racism
गंगोत
preside
जालपृष
icking
से-
policemen
फाइनेंस
वाम
चुरा
रोजमर
linking
culosis
vian
strengthen
आंका
2.6
agen
categor@@
Cot
वर-@@
लेषक
सेण
philosop@@
देहा@@
ंगो@@
सारावली
दादा@@
Prith@@
द-संसाधक
Richardson
aditya
गढे
1565
sailed
unwanted
किशन
akash
ौड
तन-@@
चिकना@@
रेसा
071
संगतता
साहसी
sati@@
ishments
F-Spot
authorized
undertook
rais@@
सहिष
आईएसओ
फासिज
nan@@
होने@@
bureaucr@@
t.
legend
संकल@@
धुत
मरु@@
लेखित
fec@@
contempl@@
ढुँढने
खिल
खिन
Tags
Shab@@
पढऋ@@
Eject
खातिर
experiencing
बाराबंकी
विनाश@@
shold
अटक
उठाव
हथेली
kni@@
Angle
gentle
Aug@@
physic@@
विकिपरियोजना
मिठाई
राम-@@
एय@@
ंगीण
aul@@
ologi@@
मश
अधिकरणों
चीस
पकाने
ओज
defi@@
happily
impe@@
idas
रतियों
honored
नाओ
ICA@@
Categories
acles
dominance
accelerated
worshiped
optimis@@
Individ@@
अनूदित
.1@@
मीनारें
Subash
वंशज
trick
काम-@@
तारि@@
जूझ@@
कठोरता
झेलने
isma
डीए@@
contempor@@
read-only
CAN
Revi@@
Jaw@@
टाउन
MLAs
banana
shre@@
sport@@
Crorepati
ū@@
आयेगी
aidik
धवार
1898
1892
भगी@@
मुखौटा
उपनिवेशों
-ज
ementary
handy
यूरे@@
Kath@@
prone
achment
manipulation
मजद
वजों
शकुनों
optici@@
desperate
नामिक
entine
yah
है.इसके
Dut@@
बढाया
Philosopher
रोजाना
ए.
agement
solem@@
plantation
ow-@@
abdom@@
consumed
खरगोश
वॉलपेपर
id-@@
disinvestment
लगें
मानवाधिकार
auspicious
Khome@@
दकर
refining
.csv
hotels
अनं@@
187@@
beng@@
राहुल
YU@@
नवीनीकरण
metabol@@
moment@@
शें
सऋद
सुखी
कंपनियाँ
andom
accus@@
याँ@@
उपनिवेशवाद
वाइन
वाइस
187
1989-@@
nin@@
तीखी
ensured
Permissions
sya
sea-@@
वेश@@
Messenger
know@@
global@@
Warming
depicting
defici@@
iii
alim
opard
दिया.@@
cosm@@
कि.@@
summar@@
inspiring
कैदियों
कदा@@
awar@@
oan
Jh@@
अनूठा
gin@@
भूतपूर
टिम@@
dvarapalas
ariya
ś@@
rhet@@
हैन
आलोचक
चरों
hami
MD@@
Average
alan
Dip@@
Didn
workshops
Foot@@
apprehen@@
mist@@
Prak@@
Augu@@
लुटे@@
Prad@@
जवाब@@
brass
दरगाह
बूते
simpler
awakening
food@@
यों-@@
Banega
micro-@@
Lists
fice
highlight
वंशा@@
endurance
लुन
Shekhar
Hen@@
mathematici@@
compositing
वयंवर
Mental
Bulg@@
131
134
कृती
Maha
जीवियों
ईंट
scal@@
माउंटबेटन
Madhy@@
उदेश
लछ
mada
Wel@@
Diam@@
Slo@@
Frontier
Ghats
cancellation
pensions
जीव-जन
१८४@@
Lou@@
लिखा@@
मढ
ubuntu@@
repression
रफुल
हैडर
कलाकृति
डी.
पंचा@@
यानपूर
sexually
Satellite
चलाई
remainder
डालफिन
Submit
Temp@@
जुनून
lanes
सुव
progen@@
exhausted
Wide
1,500
sau@@
पुनःआरंभ
अंडा@@
molecular
aston@@
mini
monthly
रुग
quest
षोत
ags
सौदों
enclosed
लांचर
volunteers
अपमानित
आऋ
Modify
मारकर
soul@@
arance
ucks
haul
dark@@
itions
नागरी
जी.पी
खादी
excav@@
छाँटें
Subtitles
las
Cyrillic
दास@@
जडे
comic
निराशा@@
ढने
ith@@
master@@
offici@@
07-@@
१५४@@
बलों
हिरासत
TWO
५५
WILL
काला@@
नसन
भाभी
trous@@
epid@@
Mug@@
substanti@@
Chooser
Tour
वयंभू
Mexican
नफ
नब
विकि
यावश
jac@@
useless
Broken
नाती
अलविदा
पहुंचता
रैंक
वैमानिक
carvings
translat@@
moder@@
cartoons
umbrella
idation
Mount@@
well-being
respon@@
बैरम
अभिजात
instinct
परवाही
upar@@
dingly
योदय
मारीच
capitalism
waited
scoring
विभेद
Qaida
रतें
Reci@@
Integr@@
Claims
166
CV
CT
sind@@
cadre
devast@@
bery
Jean
220
administr@@
inger@@
जिन@@
drawings
SQ@@
मेहता
ule
कथ@@
olic
от@@
पिंज@@
Grant
शु
innov@@
Peter@@
syllab@@
लटका
Educational
whispered
tacit
Margaret
निलंबित
Farooq
चारदीवारी
लेफ
memos
रेप
गिरती
गिरता
कीऋए
डकी
Mira
orship
बऋ-ऊण
afar
andan
आदम
पीएस
reac@@
Statutory
सीसे
यूए@@
pronunciation
lend
Bhabha
correspond
हालिया
Rural
वैली
beam
phases
promoted
निरोधक
F.@@
pit
कांगड
कमाया
methane
जुलते
जनसं@@
map@@
राजेश
appropri@@
रामपुर
संवाद@@
ठहराव
नकुल
आभूषण
steadily
Provider
कोल@@
घराने
orable
lighter
coma
pakistan
लंका@@
rection
Startup
stocks
Tube
synthetic
सिर@@
LINE
कारिक
भूखंड
मौसमी
तारू@@
Wr@@
पराकाष
bare
blow@@
अमूल
осыл@@
pear@@
WMA
Cuttack
छवियाँ
लेर
जनकर
scales
eag@@
eased
semen
KM
1.3
oney
37@@
भाभा
गांधारी
oting
gaz@@
पेंड
अभियोक
मोग
आकाशगंगाओं
committing
tech
टेश
टंर@@
राजी@@
ary-@@
plaque
१९००
entrepreneur@@
umph
bind@@
troubles
punishable
डिजा@@
कद@@
intol@@
warriors
राची@@
John@@
allowance
sume
सुनती
ओल@@
हमला@@
कारो
भरो@@
दाख
रेजि@@
रजभाषा
२-@@
counselling
es.@@
geeta
iji
बरतने
inth
rubella
suppression
दीवारी
accommod@@
rive
pencil
अंड-@@
ूप
strations
gency
ईसाइयों
dishes
aes@@
ә@@
मुहिम
दगिर
zhou
ッ@@
searched
किशोरावस
मला@@
येट
innovative
eswar
orum
enlightened
ulative
reserve
ticaemia
edural
counterparts
पठनीय
बेतरती@@
inapur
तृण@@
facil@@
दिमागी
airing
नय@@
विके@@
सीक
bagh
घटाकर
रूढि@@
bitter@@
डोमिनियन
बेदी
se-@@
zab@@
थालय
सोमनाथ
थाली
यायवादी
रूपेण
nehru
एह@@
discer@@
वरि@@
р
पटनायक
combinations
twel@@
विषा@@
संबधित
गोरिदम
eev
सामी
workpermits
orbit
ignorant
टोरंटो
compassionate
थला@@
resumed
जाड
battles
जाज
बैच
रेशमी
itably
डिड
lur@@
ceas@@
aun
बोरोडिन
४००
metadata
vicious
curator
आराम@@
रैखिक
तैमूर
मिड
eart
trigger
वारका@@
ish-@@
ello
टाइप@@
refined
जिरह
proxim@@
lunch
conventions
land-@@
ите
य-प
beta
मापी
कौर
खली
खले
संयोग@@
नलि@@
फरमा@@
liqu@@
biography
ँस
कबीलों
लीबिया
loos@@
कापीराइट
विहित
बेजोड
नशी@@
तना@@
tough@@
chasing
Py@@
tribals
विषय-@@
उपाख
लाप
लदेश
वहा
शंका
amin
थाएँ
leftist
lain
दरिया
इंसानों
remarked
गिद
envy
वही@@
हीरा
ओडि@@
inability
gop@@
वामन
आका@@
मानसिंह
blem@@
ढाका
जनी
tate
inge
uum
distress
काउन
frozen
जलाए
रशी@@
चलायी
लिवरी
за@@
टॉम
ऊनी
ummy
clever
link@@
ृंख@@
tance
spectac@@
धांतो
eleventh
occas@@
आयतें
वेली
collaboration
Est@@
एजु@@
रैली
रिजर
करेंः
हिमाल@@
facial
lawful
mab@@
prefix
एलबम
युरोप
परिपाटी
कारो@@
सांद
ेज
garment
nai@@
jaculation
ffic
बकवास
paral@@
plight
celeb@@
नेविगेशन
phil@@
अनुज
बिलिटी
yers
tear
wondering
ion-@@
easiest
राषऋ-ऊण
arriving
matched
सामंत
prov@@
संगीत@@
impul@@
far-reaching
अवार
चान
इधर-@@
नियमि@@
कैले@@
erence
उपद
लोकन
उनमे
è@@
चित@@
कच@@
sick@@
टिग
ारोपण
मने
shepher@@
यातना
ऍड@@
sec
migration
propi@@
ower
idents
demol@@
थ-व
codec
ued
ithic
revel@@
रोमो@@
ihi
historians
मिशिगन
हेम@@
जंबुद
ustomed
anyak@@
indications
तौर-@@
ऑप
bums
हैता
कैलिब
बरदस
पालकों
angi
ateral
de-@@
market@@
thm
Brow@@
eka
अपराह
halt
uttar@@
रसों
अंतरण
rugged
ताराम
sunset
तरां
famine
संकटों
शासकीय
deficit
heater
बूर
विराज@@
hurry
विवेकानंद
मेण
मुजाहि@@
atol@@
रलेखन
tica
भोर
नहि@@
नॉन
gi
prudence
providers
बराम@@
triya
विशद
लपेट
ulator
shy
authentic@@
ordarshan
̂
colourful
cyl@@
moulded
endor
रायल
हैरानी
चाहूंगा
іл@@
बित
sleep@@
टकरा
१९३०
शुरूवात
हता
les@@
pavilion
sticky
partiality
ally-@@
की.@@
walled
हेज
entity
д
खेलें
लैनिंग
गोरक
dhury
rupt
वीर@@
crit@@
कारी@@
obile
लावों
वाल@@
dey
annels
सब-@@
अंबे@@
bbed
इरादे
tolerate
cents
नायक@@
sug@@
obby
कनाशियों
मेलिंग
embarrassed
तसल
टकी
पौत
underlying
इंडीज
buf
masturb@@
granite
झड
ovation
सूचि@@
छापा
असंतोषजनक
रची
कदाचित
cost@@
mountain@@
hiji
अनुकू@@
चयापचय
misleading
nodded
आइसी@@
यादृच
पलायन
मैमोग
इलज
छरों
रधा@@
मैराथन
caf@@
घटन
जीडी@@
org.uk
cutter
बौना
amese
wibber
dium
resentment
gigan@@
ouring
bt@@
आगं@@
akers
moti@@
बलराम
है.लेकिन
राधा@@
imitation
offspring
ardo
n-ups
eving
costing
रेशर
py
dug
कहला@@
भागवत
weights
commod@@
philosoph@@
etes
ओसी@@
उम@@
painter
रपतियों
vili@@
assment
मीय
gametes
पैगंबर
रील
irpur
revenues
गॉड
e.com
हमीरपुर
ascus
де
पी-@@
typ@@
suscep@@
रमणों
riers
खुर
रवचन
यारजी
काक@@
ंकन
आइएसाऐ
संहि@@
रोटेक
ynasties
थी-
small-@@
टानों
hes
mughal
मुरादाबाद
टूल@@
निपटाने
अदम
foundations
डिसकनेक
औरों
मसाला
ीबद
apers
design@@
रेश@@
तारें
crop@@
pollut@@
ux
बहा
कैलोरी
liness
hindus
सुनिए
माधव
सेचु@@
stupa
propri@@
identifies
यथासंभव
assess
sta@@
bike
officially
suit@@
दिखावा
रूफ
idal
ोकस
अखंड@@
नेशन
वाण
वाए
लोरिडा
रेस-@@
consulting
चालु
eshwari
दब
आंग@@
тер@@
लंड
calendars
साइक
gla@@
tendencies
Hot@@
hima
अभिमान
ूं@@
helm
माघ
अनुशंसा
dominating
vering
agon@@
टूलटिप
ows-@@
longev@@
unconscious
दुरुस
retirement
१९९५
yram@@
सोचिअल
dhand
सेल@@
crosses
वंश@@
मऋ@@
illy
aqu@@
gestion
राथमिकताओं
मदा
spotted
गोले
समझदारी
yap
शवादी
महंगे
attain@@
धुआं
ईमान@@
७६
७२
गीताप
कायस
ina@@
enty
मंचन
गौरी@@
doc
oughout
भूमध
.uk
warrior
पेरि@@
नवीं
लौटते
sae
amounted
ाइलतंत
verge
aye
एव
lords
nect
ellers
ont@@
पहना
रमि@@
enquiries
सीपीयू
सकार
ect-@@
extinct
ад@@
एजे@@
हमलं
atro@@
asti
awkward
crowded
danc@@
फाउ@@
assumption
contagious
excavation
ख-@@
dropping
परशुराम
ishable
motionless
करूं
format@@
कपास
Brit@@
sewage
uate
contex@@
interaction
frequ@@
अंसारी
tail@@
elimination
inferior
emitted
divor@@
झेल
बनावटी
assuming
withdrew
एनिमेशन
कोहल
poison
तलश
mentor
grief
बारी@@
TIT@@
एसटीएस-@@
culmin@@
हैऋ
alarms
आएं
मदन
understand@@
कौरव
discount
civic
एलीफेंटा
gie
तान@@
शीतकालीन
hospitality
intendent
underneath
आएंगे
iah
alal
metall@@
सुम
anker
priests
irrelevant
rance
magical
bollah
टरिंग
बकी
हिजबुल
मन-@@
ललकृष
पुलाव
चारबाग
hym@@
tage
ाख
रामी@@
एकर@@
notify
insulted
risky
suspicious
cdr
रिख
कोआर
chickens
interven@@
mean@@
दूरगामी
mour@@
generates
testi@@
pulses
एशिया@@
माहिर
विरोधाभास
काते
रतिशोध
etters
lobby
अपनें
सजाया
strang@@
swear
आरबिट
रभु@@
शदों
संकर
hop
archit@@
alias
aping
pens@@
spinning
आजा@@
atabases
fasts
तिहा@@
रूल
estly
echoed
touch@@
moon@@
गोष
तरप
शौचालय
ecule
सोपान
कौन@@
इकह@@
san
remarks
जनतांत
सी.ए.आई.आर
ललू
Laun@@
viewport
रसी@@
cive
prophets
पकार
shrine-@@
devil
isofs
रु.की
थं@@
maha-mandapa
translator
रिलायंस
कमाते
atom
ра@@
हैंउ
लॉर
सूअरी
cage
eals
रीमियर
sadd@@
argon
elite
७५@@
eums
सरित
अधिनिर
sufficiently
हिया
севдо@@
लिच
झुकी
tted
AGE
केशनल
humidity
toll
अच@@
cameras
लालटेन
सटें@@
ढू@@
काउंटर
पायलट
उपकरण-पट
thar
जानलेवा
कुंभ
Child@@
dancers
मोहमद
earth@@
ashram
colour@@
diversi@@
धशतक
deadline
veter@@
WA@@
shed@@
तैइसगढे
basement
कुरु
दूंगा
उपभो
ढूं@@
idi
तरह-तरह
metals
enjo@@
सांसारिक
Bomb@@
nit@@
बाना
बानो
उदर
phys@@
americ@@
anks
अंद@@
crushed
तते
लूट
मिजाज
जिओ@@
rim
dout
linear
idav@@
menu@@
पाट
बिरादरी
१८५@@
रीराम
slo
ril@@
ण-भक
covery
stricts
बूंदी
omes
Ö@@
१९७९
अमेज
छरदा@@
Jour@@
आवेग
mom
notable
unset
उतार-चढ
पंर@@
बंदि@@
दुक
दुआ
eats
pati@@
लायब
favorable
organise
stell@@
फात
unmount
agrap@@
कावट
virtues
तीन-@@
बेलनाकार
scandal
माही
yya
निभाया
rhoea
idae
टीस
दिलाना
bos@@
vent
वचनों
itely
नौवीं
heer
noisy
एलोरा
ीपीसी
four@@
hattan
मकों
Dest@@
चहे@@
एचआईवी
asset
लिंटन
रन@@
बारा
ैसले
hanged
inspectors
injected
ral
parting
थलगपन
clean@@
तुकार
आरं@@
ंतु
intellect
harm@@
uter@@
supplying
एसे@@
साजि@@
rom@@
नगरपालिका
कहेगा
subquestions
बिताना
ारियो
bizarre
लेरी
जिया@@
feudal
अख@@
toilet
asht@@
lement
बौछार
अतिरि@@
वातानुकू@@
जनवादी
कंकाल
consecutive
ंग-@@
modifications
jacent
god@@
attac@@
अभिभाव@@
नंगे
tist
perial
सादगी
deliber@@
वीरप
rocket
डाईआक
murdered
सूरा
ground@@
meaningless
फॉक
ambar@@
agra@@
LL
ळी
tionaries
hered@@
राजपू@@
゚
Clin@@
दूक
Ksh@@
emy
सारा@@
जोखि@@
dlife
colum@@
sper@@
ropical
SL
tled
भुग@@
Spl@@
चीं@@
iture
bon
acier
वादन
dou@@
manufac@@
brow@@
vey@@
YO@@
भां@@
Ign@@
daugh@@
Prac@@
gt@@
ename
तवर
cling
sider
figured
दीय
छवि@@
blast
ंसिल
attemp@@
gian
owns
फायर@@
tuary
esha
कीमिया@@
spirit@@
explan@@
वाही
Tex@@
डेट
ँकि
ferred
ishe@@
Yor@@
झी@@
endul@@
mathem@@
खल
confir@@
wit@@
appar@@
99@@
Jer@@
prosper@@
ehic@@
necess@@
सीपी@@
मॉड@@
allow@@
सलों
मीट
Sarasw@@
strate@@
पेशे@@
isode
हिए
Lic@@
vad@@
incial
sligh@@
strated
Pers@@
cial
stri
विनो@@
try@@
won@@
मुखि@@
wis@@
comput@@
पेश@@
notic@@
mins
दली@@
वाभा@@
iscal
गुला@@
stitu@@
legisl@@
कभी-@@
opti@@
कटि@@
ंगता
ockey
cognito
ende@@
sert
वृति
मुझ@@
islatures
enthusi@@
भावु@@
कबू@@
मियम
बारों
ambul@@
job@@
versities
विविध@@
associ@@
act@@
With@@
prising
uplo@@
fertilis@@
phenomen@@
repres@@
quad@@
ographical
Sett@@
tog@@
す@@
butes
stein
ит@@
leas@@
doctr@@
resist@@
ateway
groun@@
Econom@@
असे@@
वैब@@
खट@@
oblig@@
cot@@
ंदगी
हि
Set@@
नियमन
Natur@@
expect@@
tool@@
elines
sters
खें
ंबू
पदा
ont
Sach@@
डाउन@@
i.@@
wast@@
tability
canning
कुड
ambo@@
ould
संभ@@
सील
एसएस
exha@@
phy@@
पठ@@
mandu
Cust@@
declar@@
Tradi@@
CHIL@@
ubs
eduled
गहरा@@
depar@@
distri@@
Leb@@
षम@@
big@@
काब@@
अनुसं@@
Retur@@
adium
sco@@
Charac@@
Pot@@
juris@@
neighb@@
Pay@@
अनुमो@@
Bangl@@
Phys@@
oples
Every@@
महे@@
सिपा@@
criptions
mix@@
ridic@@
Jah@@
Const@@
चेताव@@
ç@@
oga
ogn@@
prud@@
सुभाष@@
oughts
Arab-@@
nt
ң@@
assist@@
estig@@
नीतिक
कुछ@@
rout@@
ather
sory
ṇ@@
conspir@@
Baner@@
Aur@@
हाला@@
Particip@@
diary
CII
percent@@
ght-@@
cription
attered
साव@@
कदार
Jais@@
Know@@
fically
हारिक
eria
color@@
तृप
Schem@@
oused
बिज@@
ا@@
braries
guimen@@
टली
अनुप@@
essions
inions
अदा@@
tom
peas@@
entreprene@@
कॄ@@
अधिक@@
असहम@@
onomous
riage
संशो@@
istics
powered
ंगी@@
threat@@
Hit@@
यॊ@@
लाग@@
ident
उपयो@@
recover@@
mani@@
नय
मसू@@
aque
atpur
nate
पाली
तिप@@
मुला@@
सिम@@
शप
रोमा@@
enligh@@
alas
expres@@
ंगार
volunte@@
Flor@@
Kand@@
replac@@
शुरू@@
सटी@@
relev@@
anding
ललि@@
mately
idential
embar@@
ittle
tality
idly
partments
uary
ives
रोज@@
ॆ@@
अत@@
fortun@@
Custom@@
boy@@
sibly
search@@
cipal
lak@@
ources
यताएँ
WAR@@
षिण-@@
यायी
बारा@@
Commission@@
VIC@@
तय@@
chap@@
सोसिए@@
sci@@
यदा
insur@@
heal@@
subst@@
shoc@@
х@@
rom
接@@
यापार@@
Trav@@
Shor@@
oot@@
संत@@
intellig@@
Six@@
unci@@
Vik@@
ेश
Cle@@
umb
jur@@
bas
सोश@@
stop@@
airy
selves
life@@
verb
ploy@@
sibilities
Sind@@
ecu@@
puzz@@
गुफा@@
264
campaig@@
iv
बियन
upd@@
डाई@@
tk@@
aff
लियत
uration
thre@@
आधु@@
वत@@
rar@@
डोमि@@
fon@@
तेह@@
acchan
compati@@
इध@@
wick@@
ыл@@
ंगड
बुख@@
uminium
taic
रेजी@@
Moun@@
atma
castle
हिक
एके@@
Braz@@
reput@@
टिज
prosec@@
sity
वान@@
precau@@
ю
टीय
रे-@@
propor@@
loc
olden
Upan@@
lob@@
sumption
TEN@@
acher
complet@@
literation
Sear@@
Dravi@@
Jes@@
vide@@
कैम@@
दूस@@
Ve@@
す
practis@@
Yad@@
fth
etra
rug@@
sent@@
पीसी
रेल@@
मोद
नेपाल@@
ंबली
tices
zer@@
mbox
omatic
molec@@
आकाशगंगा@@
hibi@@
コ@@
assed
iance
बें@@
HS
Jain@@
ceremon@@
cigar@@
वैत
efly
अका@@
कुश@@
कारिता
реж@@
Laksh@@
ern
ंकित
View@@
pestic@@
सीम
डें@@
वभौ@@
Subhash@@
tober
मदी@@
inds
enforc@@
ove
मुकद@@
gli@@
Amaz@@
stoc@@
ENAME
worl@@
dign@@
सपे@@
tep@@
गित
Ś@@
activi@@
orrow
Wher@@
gression
inaug@@
itly
मैनि@@
Ctr@@
Of@@
ongs
import@@
imha
cogni@@
शवाद
बोधित
sel
यॉर
सकीय
सिए@@
ood@@
xes
Lap@@
raid
aras
bps
Trin@@
इजराय@@
cous@@
lywood
Norm@@
tish@@
ã@@
favour@@
इमार@@
अफगा@@
neighbor@@
cater@@
chromos@@
tend@@
Gibr@@
uter
islat@@
monit@@
लेन@@
aper
є@@
Khali@@
perform@@
ership
hybri@@
tem
youn@@
अली@@
country@@
YY@@
diplom@@
expec@@
Baha@@
eles
scape
quanti@@
सराह@@
या.@@
genous
दिखे@@
Ext@@
sophistic@@
bomb@@
inema
treat@@
ython
evertheless
lease
ingitis
डियम
collabor@@
claim@@
तली
мереж@@
gia
uture
रोगा@@
xx@@
aemon
ross
Scienti@@
Gaut@@
रुप@@
उछा@@
enth@@
uments
छत@@
privileg@@
कौं@@
ategy
erals
बक@@
rh@@
hundre@@
tees
ryp@@
तिर
Bhagir@@
कटौ@@
genu@@
lag
nic
NETWOR@@
जीरिया
enship
छोटे-@@
exerc@@
Thak@@
Config@@
ege
MIN@@
correspond@@
idu
हथ@@
पंचाय@@
Kolk@@
atre
सवी
tempor@@
माप@@
myster@@
ht@@
aco@@
„
infin@@
गोरख@@
bureau@@
sphrase
young@@
stitution
urity
Citiz@@
anz@@
हिंदु@@
oner
नख@@
मोरी
toil@@
रीद@@
devo@@
roll@@
etooth
एनि@@
ंबे
ademy
udes
बात@@
NC
ईसाइ@@
Tig@@
अब@@
औ
चाँ@@
ूँ
prised
ī
तोत
Satur@@
duces
डकास
Frank@@
Them@@
धानों
peti@@
do-@@
TA
नाइटेड
Arab@@
योगा@@
conven@@
tici@@
बहुत-@@
Ow@@
आउ@@
रंग-@@
डिजि@@
rastructure
adan
Stand@@
गेटर
³
TRI@@
Antarc@@
खूब@@
युवा@@
हैदरा@@
asis
seem@@
ंव
चाप
भी-@@
VP@@
Zion@@
utely
Treat@@
world@@
expos@@
Austri@@
asm
obedience
ofs
पचा@@
Fes@@
Malay@@
just@@
sty@@
Guid@@
शनरी
μ
अगु@@
represent@@
nab@@
elop@@
dec
leaf@@
omic
Scre@@
peg
Poll@@
depos@@
aemia
volun@@
rats
entually
versity
Ramal@@
ANG@@
इंग@@
ft@@
commis@@
Bik@@
ऒ@@
leep
sv
चि
t;
&@@
オ@@
डकै@@
pregn@@
पालिका
enda
मंडलीय
शुदा
eras
dule
aught
estim@@
urement
Ital@@
sensi@@
विध@@
Sho@@
ढुँ@@
pip@@
ember
destro@@
Program@@
संतो@@
Indon@@
pheric
till@@
लांटिक
elt
GT@@
amer
alla@@
rolog@@
Appro@@
गोश
भग
Soci@@
vir
मांड@@
तिज
gather@@
stead
vism
outw@@
risti@@
बाजों
नद
हाऊ@@
ystem
enger
आव@@
magn@@
overy
warded
さ@@
ansi
दूता@@
अपार@@
oted
मारी@@
ロ@@
tificial
वाधिकार
लख@@
Fern@@
myth@@
ctu@@
LC
cros@@
Resol@@
ॠ@@
एचटी@@
समझौ@@
ully
usbar
parti@@
केदार
Serv@@
OM
streng@@
stol@@
preci@@
आधुनि@@
लनों
Christi@@
umbn@@
EXTENSI@@
बकर@@
esterday
vach@@
कारि@@
iniketan
अनो@@
will@@
Tul@@
impres@@
mage
अठार@@
litig@@
lowing
chan
dation
versi@@
ँगे
found@@
Egyp@@
ँच
हलका
dience
eric@@
。
दिमा@@
culp@@
utt@@
भूत@@
remind@@
tenance
usoleum
षेक
comfor@@
recipi@@
पहर
यामि@@
ैन
orth@@
zen
सबू@@
interest@@
depri@@
सून
मिकल
eck
तुल@@
बलु@@
sacrific@@
हीत
घूम@@
sig@@
engl@@
शारी@@
Stor@@
शॉट
ensive
टकों
umbre@@
परेखा
princ@@
Zइ@@
usted
ठार@@
griev@@
एसाऐ
मी.
Intro@@
adata
user@@
Bagh@@
ihood
Micros@@
कानू@@
Pha@@
अदाल@@
वाज@@
नागरि@@
trum
Rhy@@
xy
cryst@@
DN@@
वाग@@
सोवि@@
guid@@
oris
execu@@
pill@@
वला
Four@@
पीडिया
बीसी
exac@@
Sikand@@
डी-@@
विरोधा@@
alog@@
उदय@@
graphs
न-ए-@@
भेद@@
साधक
गेंद@@
ć
शेखर
निवार@@
esystem
Exper@@
Parti@@
poll@@
miki
olution
PK@@
itement
कोज
deri@@
अहं@@
गंग@@
blems
immigr@@
midd@@
vic
Kalp@@
CER@@
your@@
Tour@@
जीवा@@
उलझ@@
roman@@
SHOR@@
traff@@
angir
APP@@
धिकार@@
scen@@
Geor@@
ution
alpha@@
धरो@@
तावे@@
ultan@@
belong@@
परमह@@
आलो@@
lier
रवि@@
cir@@
gov.uk
काऊ
ysis
रोबो@@
uals
Arth@@
denti@@
arse
ellation
षजनक
参@@
fig
लिखि@@
jid
ha-mandapa
Champion@@
Tali@@
versary
बगिंग
trag@@
-शब
inde@@
econds
ques
obi@@
fications
मंदि@@
poin@@
ruddin
Elec@@
हकी@@
Cyr@@
तमिलना@@
tok@@
encoun@@
Sep@@
prene@@
coast@@
यकी@@
गोला@@
laugh@@
edul@@
गिस
enorm@@
porters
tural
syl@@
remark@@
struggl@@
Netz@@
eclip@@
ansk@@
umn
एत@@
समारो@@
profes@@
भौति@@
Antar@@
lingu@@
सिंहा@@
गम@@
thes
airs
Poli@@
worshi@@
मेगा@@
stems
до@@
É@@
ulti@@
equi@@
बेह@@
Stic@@
लियाई
71-@@
वरत
enhouse
ー
विशे@@
Advoc@@
vag@@
esc@@
astrolog@@
garb@@
Sansk@@
illiter@@
concep@@
OC@@
メ@@
urb@@
जाहि@@
आयर@@
eously
उपभो@@
Bru@@
गिता
Gd@@
arat
सिन@@
̄
ority
धुर
Cell@@
clus@@
imen@@
Vij@@
सोस
れ@@
सिग@@
extre@@
हमी@@
リ@@
emin@@
orthodo@@
onds
dialog@@
wrong@@
L.@@
inters
appear@@
TION@@
Columb@@
रोधक
cris@@
DEVIC@@
धरी
gil
Tay@@
Wed@@
wla
кл@@
घु
जिमी
desig@@
ince
hoo
presti@@
atters
prosp@@
wadi
Repe@@
भंडार@@
Lanc@@
derly
LS@@
साब
करें@@
Vaj@@
चाहू@@
goti@@
lar
な@@
dest
Р@@
employ@@
चयाप@@
kum@@
फत
reau@@
thana
DF
जरू@@
Kang@@
साला
addres@@
desper@@
stances
Solv@@
続@@
Ele@@
रोफे@@
icable
larg@@
पालों
भाज@@
Archit@@
etan
contain@@
た@@
gress
secu@@
portation
SM@@
roleum
debug@@
गठ@@
Republic@@
opal
Exten@@
irman
मानजनक
repos@@
थर@@
Tok@@
केंड
rehabil@@
ł
रदास
रेखण
SEAR@@
इसे@@
coff@@
vings
इंत@@
ढूँ@@
versal
आं
रोटो@@
Mano@@
-पास
XT
Agr@@
लीवुड
तीस@@
Yudh@@
Sv@@
Volun@@
harlal
inating
mt@@
ंचल
duce
near@@
pover@@
laim@@
posal
Sanc@@
महो@@
बुक@@
hammad
बलि@@
ंटर
ength
apos@@
आंदो@@
Pip@@
गलिय@@
एली@@
Sovi@@
नारि@@
Legisl@@
fined
Eg@@
सचि@@
Movi@@
दारि@@
extra@@
chants
मीद@@
Bla@@
8859-@@
advant@@
thirds
assign@@
ताज@@
pilgri@@
itory
engine@@
ṛ@@
नुक@@
हानि@@
रीत
बंगा@@
दरा@@
रॉड@@
Yel@@
Gujar@@
सीबी@@
बैंग@@
eans
Himal@@
ingan
एनी@@
मुँ@@
मड
तवि@@
regist@@
mini@@
इंजीनिय@@
perc@@
INT
eleph@@
ंगुर
newsp@@
rope@@
icial
HAN@@
गंभी@@
stud@@
Д@@
vous
Victi@@
қ
speech@@
फैस@@
Aurang@@
model@@
cket
मकब@@
pare
Mess@@
टीना
chae@@
か@@
Trans
thous@@
udh@@
Mahabhar@@
GIN
विधान@@
eda
figu@@
दीवार@@
quake
fles
icide
hou
वद
nitro@@
हैंड@@
विंड@@
て@@
opping
Hyder@@
so-@@
ropol@@
accur@@
HR@@
controversi@@
velop@@
amble
mfare
good@@
nis
nership
Tow@@
Jawa@@
Relo@@
गुजरा@@
CCP
UTF-@@
ाइल@@
clou@@
Musli@@
Administr@@
Ekig@@
sibility
Authentic@@
フ@@
मुग@@
Steph@@
जस@@
help@@
णे
awk@@
gconf@@
izations
सलम
apsed
Gall@@
fing@@
रित@@
longed
corpor@@
great@@
Bot@@
offic@@
odo@@
dens
distingu@@
LS
Terror@@
सूस
administ@@
पदी
emed
igno@@
आनुवंशि@@
tton
योगकर
Actu@@
htt@@
Sof@@
जीवि@@
raham
ل@@
बामा
り@@
Job@@
बनार@@
पुथल
Religi@@
Did@@
ら@@
UM
बलू@@
ताल@@
ताभ
iment
faction
Bho@@
aplo@@
Agre@@
O-@@
º
पी.
Tog@@
कोम@@
natur@@
विशेषा@@
nity
tificates
cohol
SCO
रह-@@
contem@@
idence
UNE@@
reve@@
ऽ
dedic@@
hosp@@
icket
yod@@
निय
सिवा@@
enture
dating
गंबर
Olymp@@
ext
नलों
exclus@@
ionally
सिनसि@@
किताब@@
deli@@
कांक
गरेशन
Curr@@
knowle@@
Portugu@@
Dak@@
bered
HT@@
grasshop@@
ively
ō@@
prote@@
ultaneously
entic@@
शासन@@
User@@
tember
ウ@@
ject
prin@@
フ
bedded
रभ@@
aison
る
पोजी@@
Foun@@
toler@@
cil
थॉ@@
omm@@
Hist@@
Kut@@
agari
param@@
wap
वकी@@
aughter
anx@@
देवी@@
रतिबिंब@@
п
inik@@
echn@@
विवेकान@@
परमा@@
変@@
lifest@@
abin@@
Susp@@
Shuk@@
conveni@@
डेलि@@
उथ@@
औपचारि@@
हमे@@
Israel@@
augh@@
डाल@@
hael
turer
cock@@
robo@@
लुओं
rative
sident
vivi@@
पाटी
out-@@
itage
Ramak@@
doms
come-based
加@@
accompan@@
convers@@
हदी@@
assum@@
Environ@@
fortunately
NUM@@
attrac@@
favor@@
बरे@@
calli@@
カ@@
पहचान@@
उदी
Laj@@
alth
ancest@@
せ@@
FRO@@
Myth@@
बीमारि@@
मजा@@
ooth
pread
princi@@
mug@@
भाँ@@
Princ@@
लीप
candi@@
•
horiz@@
nagari
Hindu@@
endars
pub@@
fortunate
sians
Victor@@
adequ@@
stern
ubl@@
ताजी
रेणु
एस-@@
arkar
पडे@@
आरंभी@@
profession@@
Contr@@
Tendul@@
Anth@@
monopol@@
astern
जिये
echan@@
आबं@@
allest
bunals
षाण
exic@@
cus
हाल@@
pered
ular@@
बीका@@
Humay@@
along@@
illi@@
विजय@@
rebel@@
bindings
भीत
पंजा@@
Claim@@
lege
tivals
डेम
जीकरण
revis@@
Succ@@
determin@@
YP@@
warran@@
तुम@@
ine-@@
सममि@@
ount
alore
tremend@@
olate
Beng@@
Dru@@
There@@
epatitis
`@@
keep@@
Mugh@@
Kashmir@@
STAR@@
anni@@
हथे@@
scand@@
इय
い
सिमु@@
jala
Mach@@
mu
इंडिंग
ishi
nd
ermin@@
uster
achiev@@
पें
member@@
ahar
І@@
वयंसे@@
atiya
चारियों
आपा@@
sni@@
संकु@@
achments
geting
DRE@@
Г@@
चीत
dos@@
enjoy@@
CD-R@@
बेव@@
एचआई@@
adays
रोमांच@@
Fati@@
conclus@@
ught
nich@@
Ary@@
ayas
lux@@
कत@@
खास@@
लैंग@@
Phoen@@
excep@@
expan@@
आईपी@@
estion
2f
sile
Time@@
सच@@
lars
TR
্
harya
consci@@
oever
जें@@
ushan
entally
rectang@@
inct
sequently
hol
मब
く@@
friend@@
गणि@@
ारात
ş@@
गरों
commer@@
isol@@
detr@@
णियों
表@@
Ā@@
रदायि@@
tten
abstr@@
जादू@@
titudes
शुरु@@
と@@
estions
मुच
विदे@@
लपेपर
Wolf@@
BN
warm@@
पीढ@@
ternal
²
थलग
मॉन@@
सिलसि@@
शः
किंग@@
itala
ル@@
एसटी@@
virtu@@
हिती
agricul@@
ğ@@
जूर
JP
खत@@
ँाच
epher@@
mits
magnific@@
सहयोगि@@
orm@@
पैके@@
cutta
ん
lead@@
harmac@@
नेंस
यादा@@
ugu
लभा@@
patron@@
लखन@@
catalog@@
choos@@
Mexic@@
Sever@@
उपकरण-@@
hier@@
SM
∶
patter@@
eem
Naras@@
बेवकू@@
वैधा@@
exper@@
itchen
etly
itance
Á@@
elector@@
clude
विचार-@@
ween
া@@
attan
सोसाय@@
certain@@
Arj@@
लुग@@
Lank@@
आदा@@
contribu@@
inces
embo@@
eties
जबर@@
scrut@@
atici@@
औप@@
Dub@@
autilus
पाध
Mumta@@
pha
ंदु@@
रतियोगि@@
रखा@@
apore
मुम@@
agers
Ira@@
Devan@@
dred
Bran@@
å@@
werk
खबर@@
वाईफ
edings
ref
nois@@
diagnos@@
stead@@
ledge
firmation
Emb@@
चपैड
eligi@@
विकला@@
ddesses
У@@
FLA@@
रावली
phras@@
जीनिय@@
quadrang@@
विधे@@
रसार@@
ligible
レ@@
हरिया@@
behavi@@
Clim@@
immen@@
सेरो
premis@@
thernet
moting
superfic@@
You@@
तारी@@
kay
critici@@
achi
ṃ@@
NU@@
ोज
वरु@@
indings
lood
रमुख@@
Upanisha@@
olean
vements
inev@@
शिकाय@@
ineer
thly
yramids
sph@@
तिकता
ऎ
lovakia
Wol@@
usi@@
साफ@@
istry
corrid@@
loyal@@
Sadd@@
निके@@
ML@@
pron@@
मुखौ@@
मेडि@@
िता
भो
isine
infer@@
नर-@@
tary
कोडित
Ayod@@
spontan@@
Sci@@
चारिक
मैंट
brilli@@
ев@@
यमु@@
रारं@@
aem@@
णियाँ
तेंदु@@
HOR@@
मलया@@
Gw@@
बूझकर
afford@@
saver
ignty
Guin@@
फेयर
prison@@
टनों
MAX
timate
settl@@
mary
भया@@
कुंजि@@
マ@@
EW
sud@@
Ramchar@@
anci@@
tisgarh
mandap@@
swim@@
Maul@@
शान@@
dication
rists
Conf
pitha
cient
¿
निकेतन
embro@@
脱@@
envis@@
echo@@
liance
SOCKSv@@
ऑफ@@
अलग-@@
सहानु@@
Ghos@@
paring
यॊ
धानी
NB
NE
設@@
agues
expend@@
मंकी
wer
Č@@
Chandi@@
catastrop@@
ë@@
वाद-@@
हुल
irrig@@
एकि@@
ú@@
Kazakh@@
opportun@@
तवास
डबैक
नमू@@
ISO-@@
Ever@@
GN@@
ч
â@@
velope
ades@@
mik@@
ṣ@@
जवाहर@@
तकरी@@
रचु@@
dwar@@
फाति@@
Dro@@
portr@@
ectively
istic@@
leis@@
जुलू@@
सहू@@
xiliary
विजन
juni@@
Bach@@
更
hindu@@
endent
.d@@
रतिबि@@
मांसपे@@
isla@@
ネ@@
चारि@@
º@@
Hosp@@
tally
用@@
famili@@
उतार-@@
e.
गीतां@@
anon
力@@
ल.@@
contemp@@
सूअ@@
vement
टिफि@@
नाकार
drawal
omas
amoun@@
चुना@@
kes@@
isition
PLUGIN@@
ulty
ौद
Behavi@@
लिमि@@
⇒
র@@
तैइस@@
enty-@@
➣
रोइन
DRESS
xim@@
Harid@@
arly
autil@@
Inj@@
absol@@
Proper@@
मेर@@
Portu@@
thme@@
aplogroup
विती@@
utions
fed@@
Abd@@
cave-@@
राथमि@@
भंड@@
ecca
mob@@
る@@
आईएस@@
Ano@@
Democ@@
सेक@@
recated
usal@@
prehen@@
वयं@@
akia
align@@
कैलि@@
घृ@@
N-@@
encryp@@
हिट@@
inction
लाभा@@
kshire
tariat
वेदन
ंदी
tradi@@
Lipik@@
यावसा@@
tepad
निटर
ghan
icy@@
spective
solidated
After@@
मैथु@@
perman@@
tour@@
Feb@@
Minist@@
लहाल
जैसे-@@
resour@@
dentials
vention
ultural
does@@
suffici@@
छुट@@
gover@@
ergy
लोवा@@
कराचार
सामु@@
pensation
कुंज
odes
Palestini@@
Uttarak@@
लिफा@@
usal
CS
antar@@
entially
Punj@@
Sultan@@
नापुर
फाक
FF
सापूर
compas@@
शरण@@
तेहपुर
HTML@@
離@@
udi@@
cluded
Secon@@
आभा@@
iosity
Mahas@@
underst@@
थानां@@
hib
namic
ific@@
gras@@
dilem@@
.gsi.gov.uk
sumed
Retri@@
atab@@
ateg@@
दऋ@@
oppos@@
assy
Mukher@@
RG@@
invol@@
uge
अंदा@@
सुलिन
obsol@@
Scho@@
Nicob@@
or-General
eived
smil@@
संभव@@
SCH@@
पहन@@
versy
math@@
बिरूनी
invari@@
situ@@
ople
ос@@
ubar
omi
Wom@@
every@@
Sudd@@
मथु@@
डेन@@
Orig@@
सिकता
Jord@@
havi@@
Gorakh@@
contri@@
तथा@@
feud@@
dvarap@@
witch
gcom@@
eage
विटा@@
Mean@@
rho@@
ワー@@
year-@@
edic
जिस@@
opport@@
Kore@@
Wise
Ral@@
ō
मामू@@
知@@
एजू@@
ूक
ticle
secular@@
nuc@@
ublic@@
एसा@@
Youn@@
µ
poul@@
मेह
दुकान@@
Cz@@
inspir@@
छोटा-@@
livel@@
ikh
etc@@
Gabri@@
Foc@@
md
imum
GIN@@
Sukh@@
desir@@
acco
hospit@@
फेर@@
ww@@
संक@@
नलाइन
anistan
Anal@@
पेण
č@@
Oris@@
gry
Uz@@
切@@
є
エ@@
meet@@
Chop@@
Т@@
Mys@@
नॉटि@@
vehic@@
alian
erent
एशि@@
定@@
td
वैमा@@
tato
सीदास
endments
iP@@
onymous
Wash@@
osen
TIF@@
दीदा
mitted
Cris@@
š
Siddhar@@
Determin@@
ंगरप
Margar@@
enth
Merc@@
orb@@
fest@@
geno@@
माज
नाभि@@
शनि@@
arrang@@
ニ@@
ograp@@
ticles
aranasi
Hindut@@
Offic@@
ंदु
फेड@@
gid
Bhut@@
restaur@@
示
टरप
き@@
Ibra@@
consider@@
achable
मिठा@@
repati
environ@@
मियत
ऑ
कटिबंधीय
ords
तरीन
ATH
Dron@@
रवन
abulary
Meer@@
तस@@
dvar@@
मतें
incorpor@@
सदों
Jhar@@
धुं@@
ò
valent
通@@
tionless
rishna
Š@@
रोजग@@
कूमत
stom@@
ainik
既@@
याता@@
बगी@@
अजन@@
anthro@@
रामच@@
ारिटी
そ@@
oved
raf
upadi
til
ê@@
occur@@
como@@
Network@@
बनान
सिंगा@@
लोरी
DEFAULT
連@@
は@@
hamed
х
Fateh@@
astrop@@
उदाह@@
ucose
dures
ø@@
डीवी@@
सामू@@
NUMBERO@@
पौर
stitute
धिपत
icient
BAL@@
पैदा@@
रैफ@@
algorith@@
मौजू@@
indo
rote
गेट@@
iety
buted
ताछ
ginia
persion
fem@@
large-@@
meaning@@
Independ@@
動@@
承@@
-cut
toms
Simil@@
Febru@@
entre@@
मॉनमाउ@@
octag@@
DH@@
入@@
रिदम@@
SION
अधिका@@
Assist@@
র
vard
DMA
सुरी
付@@
intellectu@@
eply
MEDI@@
deg@@
Fail@@
ু@@
lel
read-@@
Pear@@
मैल@@
ю@@
ault
つ@@
लिट@@
महम@@
experi@@
ights
orates
UNIC@@
reven@@
जगी
tite
aniel
auty
chall@@
ऋस@@
関@@
iciary
ム@@
guis@@
状@@
usol@@
utri@@
मौसम@@
Carib@@
ingness
名@@
alition
territ@@
タ
लोरा
rupe@@
voy@@
लगं@@
Acces@@
ditions
शूल
मजदू@@
dul
utory
कामया@@
定
dhood
architec@@
मदनी
aten
रथी
Czech@@
ア
रशास@@
butter@@
inium
sewhere
dary
Screen@@
marri@@
आपरा@@
ंडित
kra@@
ऌ
自@@
adhish@@
Ó@@
मुरा@@
×
ebook
ittee
ghtness
sourc@@
SOCK@@
দ
ye@@
nabis
survey@@
Defa@@
पाणि@@
promis@@
ॡ
victi@@
tissu@@
पैत
वारिक
correspon@@
tournam@@
kia
हथकर@@
वाइस@@
Encryp@@
ব@@
ヒ
2.1@@
fod@@
一@@
anish
अराज@@
यहू@@
हिमन@@
ilities
erness
amboo
मिसाइ@@
गरी@@
सरण
गेशन
wonder@@
isl@@
sery
रिवा@@
witn@@
Karnat@@
タ@@
ন
figh@@
pavil@@
distribu@@
reless
पिरा@@
Ahmed@@
feel@@
へ
discar@@
financi@@
बगा@@
बार-@@
ă@@
कठो@@
作@@
धिष
sidas
CERTIFICAT@@
PARTI@@
μ@@
orting
Ander@@
खगो@@
こ@@
ausp@@
gible
॥
SUB@@
decs
istr@@
ě@@
Industri@@
लिहा@@
avail@@
orig@@
कीट@@
गोप@@
Vill@@
ilos@@
atisation
ipat
जाऊ
gent@@
see@@
आतंक@@
Explo@@
秦
seeker
संवेदन@@
altar
Jew@@
ル
ॐ
[...]
